{"<|endoftext|>":0,"!":1,"\"":2,"#":3,"$":4,"%":5,"&":6,"'":7,"(":8,")":9,"*":10,"+":11,",":12,"-":13,".":14,"/":15,"0":16,"1":17,"2":18,"3":19,"4":20,"5":21,"6":22,"7":23,"8":24,"9":25,":":26,";":27,"<":28,"=":29,">":30,"?":31,"@":32,"A":33,"B":34,"C":35,"D":36,"E":37,"F":38,"G":39,"H":40,"I":41,"J":42,"K":43,"L":44,"M":45,"N":46,"O":47,"P":48,"Q":49,"R":50,"S":51,"T":52,"U":53,"V":54,"W":55,"X":56,"Y":57,"Z":58,"[":59,"\\":60,"]":61,"^":62,"_":63,"`":64,"a":65,"b":66,"c":67,"d":68,"e":69,"f":70,"g":71,"h":72,"i":73,"j":74,"k":75,"l":76,"m":77,"n":78,"o":79,"p":80,"q":81,"r":82,"s":83,"t":84,"u":85,"v":86,"w":87,"x":88,"y":89,"z":90,"{":91,"|":92,"}":93,"~":94,"¡":95,"¢":96,"£":97,"¤":98,"¥":99,"¦":100,"§":101,"¨":102,"©":103,"ª":104,"«":105,"¬":106,"®":107,"¯":108,"°":109,"±":110,"²":111,"³":112,"´":113,"µ":114,"¶":115,"·":116,"¸":117,"¹":118,"º":119,"»":120,"¼":121,"½":122,"¾":123,"¿":124,"À":125,"Á":126,"Â":127,"Ã":128,"Ä":129,"Å":130,"Æ":131,"Ç":132,"È":133,"É":134,"Ê":135,"Ë":136,"Ì":137,"Í":138,"Î":139,"Ï":140,"Ð":141,"Ñ":142,"Ò":143,"Ó":144,"Ô":145,"Õ":146,"Ö":147,"×":148,"Ø":149,"Ù":150,"Ú":151,"Û":152,"Ü":153,"Ý":154,"Þ":155,"ß":156,"à":157,"á":158,"â":159,"ã":160,"ä":161,"å":162,"æ":163,"ç":164,"è":165,"é":166,"ê":167,"ë":168,"ì":169,"í":170,"î":171,"ï":172,"ð":173,"ñ":174,"ò":175,"ó":176,"ô":177,"õ":178,"ö":179,"÷":180,"ø":181,"ù":182,"ú":183,"û":184,"ü":185,"ý":186,"þ":187,"ÿ":188,"Ā":189,"ā":190,"Ă":191,"ă":192,"Ą":193,"ą":194,"Ć":195,"ć":196,"Ĉ":197,"ĉ":198,"Ċ":199,"ċ":200,"Č":201,"č":202,"Ď":203,"ď":204,"Đ":205,"đ":206,"Ē":207,"ē":208,"Ĕ":209,"ĕ":210,"Ė":211,"ė":212,"Ę":213,"ę":214,"Ě":215,"ě":216,"Ĝ":217,"ĝ":218,"Ğ":219,"ğ":220,"Ġ":221,"ġ":222,"Ģ":223,"ģ":224,"Ĥ":225,"ĥ":226,"Ħ":227,"ħ":228,"Ĩ":229,"ĩ":230,"Ī":231,"ī":232,"Ĭ":233,"ĭ":234,"Į":235,"į":236,"İ":237,"ı":238,"Ĳ":239,"ĳ":240,"Ĵ":241,"ĵ":242,"Ķ":243,"ķ":244,"ĸ":245,"Ĺ":246,"ĺ":247,"Ļ":248,"ļ":249,"Ľ":250,"ľ":251,"Ŀ":252,"ŀ":253,"Ł":254,"ł":255,"Ń":256,"ĠĠ":257,"ĠĠĠĠ":258,"ĠĠĠĠĠĠĠĠ":259,"ĠĠĠ":260,"er":261,"et":262,"on":263,"in":264,");":265,"at":266,"ĊĠĠĠĠ":267,"es":268,"ĊĠĠĠĠĠĠĠĠ":269,"ĉĉ":270,"en":271,"al":272,"or":273,"ĊĠĠĠĠĠĠĠ":274,"Ġt":275,"ion":276,"Ġ=":277,"st":278,"le":279,"()":280,"Ġ{":281,"get":282,"re":283,"an":284,"ar":285,"ct":286,"it":287,"Ġn":288,"ing":289,"ro":290,"ic":291,"Ġ}":292,"ent":293,"Ċĉĉ":294,"St":295,"ur":296,"Ġc":297,"as":298,"de":299,"am":300,"Ċĉ":301,"ĊĠĠĠ":302,"Ġ(":303,"ce":304,"is":305,"ew":306,"ul":307,"ĊĠĠĠĠĠĠĠĠĠĠĠ":308,"Ġth":309,"Ġp":310,"ut":311,"Ġ*":312,"ed":313,"Ġf":314,"if":315,"ĠĠĠĠĠĠĠ":316,"Ġs":317,"ring":318,"id":319,"();":320,"ub":321,"ad":322,"pt":323,"Ġr":324,"ate":325,"ex":326,"il":327,"String":328,"se":329,"(\"":330,"In":331,"el":332,"lic":333,"ĊĠĠĠĠĠĠĠĠĠĠĠĠĠĠĠĠ":334,"Ġ\"":335,"ag":336,"urn":337,"ri":338,"eturn":339,"ist":340,"Ġv":341,"ue":342,"ch":343,"int":344,"ĊĠĠĠĠĠĠĠĠĠĠĠĠĠĠĠ":345,"Ġnew":346,"ect":347,"ap":348,"lo":349,"Ġb":350,"est":351,"Ġm":352,"Ex":353,"ass":354,"ublic":355,"ull":356,"om":357,"un":358,"ption":359,"ame":360,"qu":361,"Ġif":362,"em":363,"Con":364,"ess":365,"ab":366,"ation":367,"ert":368,"ol":369,"//":370,"ck":371,"th":372,"ode":373,"ext":374,"set":375,"Ġthe":376,"pe":377,"Ġ+":378,"Ġd":379,"Ġo":380,"ception":381,"Ġreturn":382,"im":383,"Re":384,"ot":385,"um":386,"ig":387,"Ġnull":388,"ay":389,"ver":390,"Exception":391,"ĊĠĠĠĠĠ":392,"\",":393,"().":394,"List":395,"age":396,"ile":397,"Ġin":398,"alue":399,"oid":400,"Ġw":401,"up":402,"ult":403,"able":404,"Ġ@":405,"Ġa":406,"ype":407,"ject":408,"Ġvoid":409,"Ċĉĉĉ":410,"\");":411,"row":412,"());":413,"der":414,"));":415,"Name":416,"Ċĉĉĉĉ":417,"and":418,"add":419,"Ġst":420,"aram":421,"Ġ//":422,"Ġre":423,"ment":424,"ĠString":425,"us":426,"ction":427,"Pro":428,"ĠT":429,"ĊĠĠĠĠĠĠĠĠĠĠĠĠĠĠĠĠĠĠĠ":430,"iz":431,"Id":432,"Ġpublic":433,"ĠS":434,"od":435,"public":436,"inal":437,"ata":438,"put":439,"Ġ0":440,"ter":441,"lass":442,").":443,"ĠA":444,"bject":445,"oo":446,"Ġto":447,"Ġe":448,"Ġl":449,"ĊĊĠĠĠĠĠĠĠ":450,"Res":451,"pl":452,"end":453,"ĠC":454,"ve":455,"Ġget":456,"**":457,"ont":458,"00":459,"ity":460,"ry":461,"Ġthis":462,"Cont":463,"Type":464,"assert":465,"čĊĉ":466,"En":467,"oc":468,"oun":469,"qual":470,"ey":471,"Ġint":472,"Ġ==":473,"Ġ<":474,"))":475,"ase":476,"ra":477,"ers":478,"uil":479,"Ġfor":480,"art":481,"Object":482,"our":483,"stan":484,"Over":485,"Ġh":486,"return":487,"Ġthrow":488,"app":489,"ĊĠĠĠĠĠĠĠĠĠĠĠĠĠĠĠĠĠĠĠĠĠĠĠĠ":490,"atch":491,"Ġ1":492,"Ġ!":493,"To":494,"ride":495,"Ġres":496,"new":497,"to":498,"ĠI":499,"Override":500,"rr":501,"iew":502,"ow":503,"pon":504,"ĠM":505,"ack":506,"os":507,"quals":508,"pr":509,"rue":510,"ec":511,"ath":512,"Value":513,"(),":514,"ain":515,"ize":516,"ort":517,"erv":518,"for":519,"out":520,"Ġ*/":521,"Ġis":522,"ĊĠ":523,"quest":524,"Ġfinal":525,"File":526,"ff":527,"Ġi":528,"Ġ-":529,"he":530,"all":531,"())":532,"Ġ!=":533,"ĠD":534,"reate":535,"ON":536,"ory":537,"ice":538,"te":539,"/**":540,"else":541,"ime":542,"ĠP":543,"param":544,"ir":545,"ER":546,"eld":547,"fig":548,"vent":549,"ource":550,"ield":551,"Ġassert":552,"ĊĠĠĠĠĠĠĠĠĠĠĠĠĠĠĠĠĠĠĠĠĠĠĠ":553,"act":554,"alse":555,"this":556,"ang":557,"Ġpro":558,"essage":559,"Ġex":560,"ial":561,"tt":562,"stance":563,"lean":564,"av":565,"ator":566,"Com":567,"li":568,"View":569,"ith":570,"ĠB":571,"dex":572,"ener":573,"Ġg":574,"rit":575,"Ġof":576,"uilder":577,"oolean":578,"Ġ.":579,"Ch":580,"čĊĠĠĠĠĠĠĠ":581,"Ġelse":582,"ser":583,"res":584,"ĊĠĠ":585,"ount":586,"og":587,"Data":588,"pert":589,"lement":590,"ition":591,"[]":592,"Test":593,"ure":594,"Set":595,"Ġthrows":596,"ger":597,"čĊĉĉ":598,"--":599,"per":600,"pro":601,"Ġj":602,"cess":603,"fa":604,"IN":605,"ind":606,"iv":607,"rray":608,"ine":609,"eth":610,"Ġcon":611,"ĠR":612,"ervice":613,"Ġlo":614,"rom":615,"Ġ:":616,"fo":617,"ponse":618,"ĠL":619,"Ġde":620,"Key":621,"tem":622,"čĊ":623,"class":624,"til":625,"De":626,"Ġbe":627,"Col":628,"Map":629,"eng":630,"ethod":631,"Ġon":632,"),":633,"ĊĠĠĠĠĠĠĠĠĠ":634,"By":635,"ans":636,"Context":637,"ĠIn":638,"ord":639,"For":640,"ach":641,"Util":642,"ong":643,"Ġfalse":644,"urr":645,"Ġstat":646,"Ġcont":647,"Ġcom":648,"code":649,"ream":650,"op":651,"ĠĠĠĠĠĠĠĠĠĠĠĠĠĠĠĠ":652,"Ġ&":653,"State":654,"ore":655,"AT":656,"Ġset":657,"Text":658,"ength":659,"Class":660,"roup":661,"ies":662,"ession":663,"ute":664,"yst":665,"ST":666,"riv":667,"rib":668,"ery":669,"cont":670,"con":671,"Node":672,"Config":673,"ak":674,"Th":675,"ystem":676,"ht":677,"ader":678,"ID":679,"Ent":680,"Equals":681,"ast":682,"RE":683,"Ġresult":684,"ire":685,"Se":686,"anag":687,"ail":688,"Ġtrue":689,"com":690,"key":691,"ected":692,"ll":693,"form":694,"Ġvalue":695,"ument":696,"rivate":697,"port":698,"Builder":699,"odel":700,"ax":701,"Ġit":702,"rans":703,"Event":704,"Request":705,"append":706,"An":707,"ive":708,"urrent":709,"lient":710,"read":711,"LE":712,"Field":713,"Ġtest":714,"pa":715,"Item":716,"Message":717,"Ġ&&":718,"val":719,"lect":720,"Propert":721,"Ġstatic":722,"Path":723,"oint":724,"Ad":725,"Not":726,"Ġcatch":727,"Ġboolean":728,"cri":729,"anager":730,"ust":731,"oub":732,"sh":733,"ip":734,"fer":735,"ouble":736,"uff":737,"ĊĊĠĠĠ":738,"ink":739,"Im":740,"par":741,"Result":742,"print":743,"Un":744,"ĠG":745,"Service":746,"Ġwh":747,"ence":748,"ated":749,"ber":750,"ash":751,"Time":752,"Param":753,"ĠF":754,"user":755,"ĠJ":756,"Qu":757,"ss":758,"name":759,"Element":760,"EN":761,"nect":762,"Ġor":763,"ĠH":764,"fault":765,"equals":766,"Stream":767,"Ġ2":768,"Ġand":769,"ug":770,"ight":771,"ock":772,"final":773,"\\\"":774,"Ġnot":775,"create":776,"lock":777,"ly":778,"Manager":779,"ava":780,"lection":781,"Info":782,"ign":783,"Ġ)":784,"Ġch":785,"Stat":786,"OR":787,"Ġan":788,"date":789,"ob":790,"Ċĉĉĉĉĉ":791,"ĊĊĉ":792,"of":793,"\")":794,"Null":795,"Ċĉĉĉĉĉĉ":796,"private":797,"čĊĠĠĠĠĠĠĠĠĠĠĠ":798,"ĠList":799,"Ġtry":800,"ken":801,"heck":802,"Ġ);":803,"Of":804,"ill":805,"ask":806,"ost":807,"uffer":808,"arg":809,"ound":810,"sion":811,"ifi":812,"length":813,"User":814,"value":815,"AL":816,"ĊĠĠĠĠĠĠĠĠĠĠĠĠĠĠĠĠĠĠĠĠĠĠĠĠĠĠĠ":817,"ork":818,"size":819,"ule":820,"umn":821,"Array":822,"ĊĊĠĠĠĠĠĠĠĠĠĠĠ":823,"err":824,"++":825,"Response":826,"teger":827,"ĊĠĠĠĠĠĠĠĠĠĠĠĠ":828,"actory":829,"ard":830,"ĠO":831,"red":832,"Ġ|":833,"arget":834,"Instance":835,"Att":836,"Int":837,"ME":838,"ove":839,"ress":840,"pos":841,"rite":842,"uration":843,"Ar":844,"ib":845,"čĊĉĉĉ":846,"Group":847,"Index":848,"Ġinstance":849,"uild":850,"čĊĠĠĠ":851,"let":852,"ĠObject":853,"ann":854,"Ġ>":855,"yn":856,"Code":857,"UR":858,"eter":859,"</":860,"ccess":861,"ler":862,"ange":863,"cal":864,"ilter":865,"Ġname":866,"ces":867,"getS":868,"toString":869,"ru":870,"Val":871,"ues":872,"ttp":873,"Ġby":874,"Ġsh":875,"Property":876,"rror":877,"null":878,"ION":879,"Ap":880,"ache":881,"AR":882,"son":883,"Ġcase":884,"Ġlist":885,"Ġadd":886,"ayout":887,"On":888,"gist":889,"Ġ(!":890,"ponent":891,"utput":892,"umber":893,"pty":894,"ple":895,"ĠassertEquals":896,"Utils":897,"Error":898,"riter":899,"Action":900,"ix":901,"use":902,"Listener":903,"Ġdata":904,"ary":905,"log":906,"Ġse":907,"escri":908,"\";":909,"ml":910,"Ġ{@":911,"Loc":912,"cc":913,"DE":914,"He":915,"Em":916,"((":917,"error":918,"ĠException":919,"OException":920,"nection":921,"Factory":922,"Query":923,"low":924,"ild":925,"ĠN":926,"ribute":927,"Model":928,"Size":929,"ln":930,"Up":931,"cl":932,"Hand":933,"reak":934,"SE":935,"Ġpar":936,"ings":937,"Ġwith":938,"Pl":939,"ther":940,"Ġcreate":941,"\"));":942,"ree":943,"Ġfile":944,"Act":945,"ĠArray":946,"Par":947,"Count":948,"und":949,"ĠW":950,"throw":951,"pec":952,"arch":953,"one":954,"att":955,"println":956,"ayer":957,"Ġx":958,"Ġfrom":959,"With":960,"ivity":961,"uper":962,"ĠThe":963,"Ġval":964,"Entity":965,"Inter":966,"Ġ?":967,"erver":968,"Ġparam":969,"ĠV":970,"Ġthat":971,"Ġ'":972,"TE":973,"Ġrequest":974,"Resource":975,"utt":976,"uth":977,"Status":978,"Sh":979,"mand":980,"ud":981,"AN":982,"Or":983,"ave":984,"abel":985,"Ġ_":986,"Be":987,"io":988,"Form":989,"utton":990,"Ġid":991,"Ġy":992,"rap":993,"----":994,"file":995,"Ġkey":996,"Log":997,"loat":998,"Ġ||":999,"Client":1000,"true":1001,"ded":1002,"Ġcol":1003,"ĠFile":1004,"Ġtype":1005,"ant":1006,"ge":1007,"own":1008,"RO":1009,"čĊĠĠĠĠ":1010,"Method":1011,"Date":1012,"ific":1013,"Rec":1014,"ac":1015,"Pre":1016,"oul":1017,"Met":1018,"Ġlog":1019,"Ġmethod":1020,"stant":1021,"ould":1022,"ames":1023,"Table":1024,"From":1025,"move":1026,"leg":1027,">();":1028,"Trans":1029,"ersion":1030,"++)":1031,"erm":1032,"getName":1033,"ĠĠĠĠĠĠĠĠĠĠĠ":1034,"itor":1035,"ĠTh":1036,"ference":1037,"ance":1038,"gle":1039,"Ġent":1040,"Input":1041,"CE":1042,"irst":1043,"Content":1044,"ep":1045,"ite":1046,"query":1047,"Add":1048,"Le":1049,"not":1050,"Arg":1051,"ocument":1052,"pected":1053,"tected":1054,"All":1055,"Ġ((":1056,"Ġup":1057,"Ġal":1058,"Ġobject":1059,"ains":1060,"apt":1061,"ĠSystem":1062,"link":1063,"Ġcontext":1064,"System":1065,"CT":1066,"Pan":1067,"Option":1068,"action":1069,"Ed":1070,"pre":1071,"==":1072,"test":1073,"ssert":1074,"..":1075,"0000":1076,"unction":1077,"vel":1078,"Ġinstanceof":1079,"Sc":1080,"Ġim":1081,"];":1082,"ider":1083,"Ġuser":1084,"sg":1085,"IT":1086,"Ġ3":1087,"ecut":1088,"ari":1089,"Ġarg":1090,"ations":1091,"pression":1092,"Pos":1093,"Ġun":1094,"As":1095,"fin":1096,"Stack":1097,"yp":1098,"CO":1099,"ify":1100,"Handler":1101,"Layout":1102,"Ġ/":1103,"Tra":1104,"time":1105,"ia":1106,"getC":1107,"ĠArrayList":1108,"older":1109,"čĊĠĠĠĠĠĠĠĠĠĠĠĠĠĠĠ":1110,"load":1111,"lose":1112,"Empty":1113,"start":1114,"ĠIOException":1115,"col":1116,"result":1117,"irect":1118,"raw":1119,"ialog":1120,"data":1121,"idth":1122,"back":1123,"That":1124,"write":1125,"\"))":1126,"ender":1127,"next":1128,"Buffer":1129,"Token":1130,"oogle":1131,"Configuration":1132,"SS":1133,"list":1134,"Entry":1135,"Ġstart":1136,"tern":1137,"enc":1138,"){":1139,"uf":1140,"ruct":1141,"App":1142,"AG":1143,"ace":1144,"And":1145,"type":1146,"raph":1147,"Ġas":1148,"Al":1149,"ner":1150,"Descri":1151,"ell":1152,"map":1153,"ere":1154,"ffset":1155,"lication":1156,"ĊĠĠĠĠĠĠĠĠĠĠĠĠĠĠĠĠĠĠĠĠĠĠĠĠĠĠĠĠĠĠĠ":1157,"Ġwe":1158,"Ġbreak":1159,"tes":1160,"roll":1161,"ized":1162,"string":1163,"LO":1164,"ENT":1165,"Integer":1166,"context":1167,"Attribute":1168,"()).":1169,"Point":1170,"ainer":1171,"Ġcheck":1172,"****":1173,"ĊĠĠĠĠĠĠĠĠĠĠĠĠĠ":1174,"Ġdo":1175,"Color":1176,"chem":1177,"ook":1178,"has":1179,"AME":1180,"erial":1181,"vider":1182,"Component":1183,"Constant":1184,"du":1185,"10":1186,"Column":1187,"True":1188,"google":1189,"Ġro":1190,"ual":1191,"ft":1192,"sc":1193,"current":1194,"abled":1195,"ox":1196,"Ġcurrent":1197,"pace":1198,"enu":1199,"index":1200,"Ġdouble":1201,"ension":1202,"sub":1203,"Ġsuper":1204,"ature":1205,"Activity":1206,"Ġlong":1207,"valid":1208,"Ġ->":1209,"\").":1210,"lected":1211,"Ġresponse":1212,"Ġpre":1213,"lick":1214,"arr":1215,"ics":1216,"ide":1217,"ĊĉĉĊĉ":1218,"Connection":1219,"Button":1220,"vert":1221,"min":1222,"Ġindex":1223,"sp":1224,"Ġconfig":1225,"Start":1226,"ram":1227,"ĠE":1228,"throws":1229,"ING":1230,"Ro":1231,"Output":1232,"Ġout":1233,"Ġfield":1234,"peration":1235,"assertEquals":1236,"rim":1237,"bug":1238,"Tag":1239,"FI":1240,">>":1241,"Ġinput":1242,"Image":1243,"Block":1244,"End":1245,"Ġext":1246,"Line":1247,"PE":1248,"stra":1249,"old":1250,"Parameter":1251,"Source":1252,"false":1253,"ark":1254,"legal":1255,"Hel":1256,"ypes":1257,"contains":1258,"Call":1259,"itial":1260,"UT":1261,"ok":1262,"build":1263,"iles":1264,"annel":1265,"Ext":1266,"čĊĉĉĉĉ":1267,"Ġk":1268,"Ġrun":1269,"Ġpl":1270,"ĊĠĠĠĠĠĠĠĠĠĠĠĠĠĠĠĠĠĠĠĠĠĠĠĠĠĠĠĠĠĠĠĠĠĠĠĠĠĠĠĠ":1271,"ecute":1272,"ake":1273,"Argument":1274,"Fr":1275,"Dis":1276,"bj":1277,"ates":1278,"apter":1279,"11":1280,"ĠInteger":1281,"Filter":1282,"Ġitem":1283,"Mod":1284,"Task":1285,"itle":1286,"Ġnode":1287,"parse":1288,"word":1289,"llegal":1290,"TY":1291,"()));":1292,"ĠassertThat":1293,"Lo":1294,"ĠRe":1295,"eters":1296,"ribut":1297,"Ġjava":1298,"ql":1299,"ptor":1300,"Process":1301,"rid":1302,"Ġevent":1303,"NAME":1304,"tings":1305,"find":1306,"ified":1307,"Row":1308,"Version":1309,"AP":1310,"ifier":1311,"ccount":1312,"Impl":1313,"Ġcall":1314,"yte":1315,"ĠAssert":1316,"ody":1317,"ages":1318,"Number":1319,"getString":1320,"quire":1321,"ĊĊĠĠĠĠĠĠĠĠĠĠĠĠĠĠĠ":1322,"Ġare":1323,"UL":1324,"les":1325,"Ġus":1326,"Dec":1327,"Ġen":1328,"SON":1329,"Format":1330,"ateg":1331,"Pack":1332,"getValue":1333,"Ġend":1334,"ector":1335,"ĠCol":1336,"Ġmessage":1337,"point":1338,"ĉĉĉĉ":1339,"Ġdefault":1340,"co":1341,"field":1342,"gister":1343,"<?":1344,"ĠMap":1345,"rl":1346,"000":1347,"Label":1348,"play":1349,"ĠCom":1350,"Part":1351,"Sub":1352,"array":1353,"arn":1354,"Constants":1355,"Ġall":1356,"UN":1357,"Ġpos":1358,"che":1359,"iter":1360,"Ġ4":1361,"adata":1362,"opy":1363,"Properties":1364,"chema":1365,"Default":1366,"url":1367,"sor":1368,"Ġclass":1369,"Run":1370,"TO":1371,"info":1372,"ification":1373,"getId":1374,"java":1375,"try":1376,"Expression":1377,"Long":1378,"Page":1379,"Ġatt":1380,"NotNull":1381,"sum":1382,"Provider":1383,"bs":1384,"ld":1385,"Ġtarget":1386,"ATE":1387,"12":1388,"Case":1389,"plate":1390,"remove":1391,"check":1392,"ML":1393,"Vis":1394,"AD":1395,"ync":1396,"Child":1397,"UE":1398,"nal":1399,"led":1400,"Get":1401,"CH":1402,"Helper":1403,"Valid":1404,"Click":1405,"atab":1406,"getM":1407,"CON":1408,"URL":1409,"Server":1410,"Check":1411,"Project":1412,"Ġpropert":1413,"Ġact":1414,"ĠSet":1415,"Ġerror":1416,"ish":1417,"ible":1418,"po":1419,"ps":1420,"Ġstate":1421,"plet":1422,"Execut":1423,"].":1424,"DO":1425,"lang":1426,"ick":1427,"Ġpath":1428,"__":1429,"apper":1430,"ĠX":1431,"Ġsub":1432,"Ġother":1433,"ply":1434,"upport":1435,"Bean":1436,"Ġshould":1437,"Ġ});":1438,"Address":1439,"ustom":1440,"close":1441,"cle":1442,"ĠĠĠĠĠ":1443,"que":1444,"Panel":1445,"uster":1446,"imple":1447,"eb":1448,"LI":1449,"Record":1450,"Session":1451,"item":1452,"Per":1453,"Ġelement":1454,"Ġwill":1455,"At":1456,"Ġhe":1457,"Ġmap":1458,"Ref":1459,"Enabled":1460,"Po":1461,"ĊĊĠĠĠĠĠ":1462,"ĊĊĉĉ":1463,"isEmpty":1464,"work":1465,"atabase":1466,"ĠIllegal":1467,"Ġsb":1468,"Del":1469,"Url":1470,"be":1471,"Access":1472,"Ġread":1473,"etail":1474,"Names":1475,"KE":1476,"QL":1477,"ample":1478,"Collection":1479,"Ġle":1480,"Ġquery":1481,"pare":1482,"rol":1483,"odes":1484,"face":1485,"Ġbyte":1486,"rc":1487,"ĠHash":1488,"Local":1489,"fl":1490,"Update":1491,"Ġcan":1492,"ative":1493,"Command":1494,"yle":1495,"20":1496,"aw":1497,"andom":1498,"path":1499,"request":1500,">(":1501,"SI":1502,"ility":1503,"attern":1504,"Ġspec":1505,"undle":1506,"line":1507,"Writer":1508,"\"),":1509,"Ġhand":1510,"lete":1511,"format":1512,"view":1513,"Ġwhile":1514,"esc":1515,"Cache":1516,"ĠTest":1517,"Next":1518,"ov":1519,"Ġcl":1520,"Ġwhen":1521,"Return":1522,"Auth":1523,"Dialog":1524,"Target":1525,"ission":1526,"Ġ5":1527,"Ġhas":1528,"Location":1529,"Base":1530,"Values":1531,"ĠU":1532,"ome":1533,"Trace":1534,"sing":1535,"indow":1536,"FA":1537,"place":1538,"Char":1539,"Ġ+=":1540,"Reader":1541,"Ġupdate":1542,"sw":1543,"()))":1544,"ient":1545,"text":1546,"Level":1547,"Tree":1548,"finition":1549,"agment":1550,"emplate":1551,"gion":1552,"No":1553,"AB":1554,"Ġview":1555,"ical":1556,"irectory":1557,"Position":1558,"Dir":1559,"buf":1560,"bo":1561,"wh":1562,"order":1563,"ote":1564,"iled":1565,"struct":1566,"uccess":1567,"pen":1568,"mit":1569,"Adapter":1570,"fore":1571,"MP":1572,"Container":1573,"Byte":1574,"ariable":1575,"posit":1576,"Ġfind":1577,"fix":1578,"=\"":1579,"Regist":1580,"Gener":1581,"ervlet":1582,"Ġtrans":1583,"Thread":1584,"anged":1585,"iven":1586,"Options":1587,"ocol":1588,"Fe":1589,"mp":1590,"itch":1591,"Ġstring":1592,"Document":1593,"ices":1594,"Ġmax":1595,"Unit":1596,"Cl":1597,"ĊĠĠĠĠĠĠĠĠĠĠĠĠĠĠĠĠĠĠĠĠĠĠĠĠĠĠĠĠĠĠĠĠ":1598,"rig":1599,"tocol":1600,"ization":1601,"Is":1602,"MA":1603,"Ġvalues":1604,"org":1605,"Ġem":1606,"Ġform":1607,"Ġtime":1608,"Ġprotected":1609,"Bytes":1610,"\\\\":1611,"Order":1612,"TR":1613,"ched":1614,"Store":1615,"Mode":1616,"other":1617,"Ġbuilder":1618,"are":1619,"ources":1620,"protected":1621,"getP":1622,"Ġapp":1623,"Width":1624,"omain":1625,"getInstance":1626,"Str":1627,"ributes":1628,"Ġtable":1629,"with":1630,"loc":1631,"getB":1632,"assword":1633,"my":1634,"apping":1635,"Ġorg":1636,"Ġrow":1637,"stat":1638,"cept":1639,"az":1640,"event":1641,"Create":1642,"Ġclient":1643,"Ġparent":1644,".\");":1645,"setText":1646,"orld":1647,"Ġoutput":1648,"Ġexpected":1649,"Statement":1650,"--------":1651,"Ġtext":1652,"ATION":1653,"getMessage":1654,"pository":1655,"Iter":1656,"ugin":1657,"Ġresource":1658,"Ġaction":1659,"Ġsc":1660,"]);":1661,"plit":1662,"NO":1663,"TH":1664,"ph":1665,"double":1666,"ie":1667,"ArgumentException":1668,"Ġdis":1669,"ById":1670,"Header":1671,"config":1672,"Mem":1673,"sert":1674,"Ġret":1675,"Menu":1676,"case":1677,"Ġ</":1678,"Function":1679,"LA":1680,"TYPE":1681,"Rem":1682,"Types":1683,"dition":1684,"ms":1685,"Ġz":1686,"vice":1687,"ee":1688,"ron":1689,"input":1690,"debug":1691,"Json":1692,"Ġno":1693,"Ġargs":1694,"Ġsource":1695,"ause":1696,"gress":1697,"Descriptor":1698,"ond":1699,"ĊĠĠĠĠĠĠĠĠĊĠĠĠĠĠĠĠ":1700,"api":1701,"ao":1702,"ĠLog":1703,"roller":1704,"Double":1705,"SER":1706,"ursor":1707,"ĠCon":1708,"čĊĠĠĠĠĠ":1709,"ĠThis":1710,"Ġprocess":1711,"Ġat":1712,"ĠassertTrue":1713,"ich":1714,"fter":1715,"ĠRun":1716,"cript":1717,"Http":1718,"Ġad":1719,"URI":1720,"Package":1721,"gener":1722,"sed":1723,"<>();":1724,"Out":1725,"čĊĠĠĠĠĠĠĠĠĠĠĠĠĠĠĠĠĠĠĠ":1726,"utable":1727,"Ġfirst":1728,"ED":1729,"Reference":1730,"izer":1731,"Length":1732,"node":1733,"Spec":1734,"Link":1735,"round":1736,"lob":1737,"Ġsize":1738,"Params":1739,"Box":1740,"getClass":1741,"Selected":1742,"http":1743,"show":1744,"ends":1745,"Ġcolumn":1746,"Ġgiven":1747,"duct":1748,"message":1749,"VAL":1750,"ULT":1751,"mon":1752,"doc":1753,"orage":1754,"Ġmy":1755,"Ġvalid":1756,"eta":1757,"://":1758,"Ġservice":1759,"Match":1760,"Ġrec":1761,"ait":1762,"Ġmatch":1763,"StackTrace":1764,"amp":1765,"entity":1766,"si":1767,"Non":1768,"otal":1769,"Ġentry":1770,"DI":1771,"'t":1772,"ush":1773,"ĠIf":1774,"EX":1775,"Read":1776,"ym":1777,"ĠIm":1778,"dis":1779,"Comp":1780,"ency":1781,"long":1782,"Settings":1783,"straint":1784,"press":1785,"Ġprivate":1786,"Definition":1787,"Ġobj":1788,"Rule":1789,"Operation":1790,"Ġcount":1791,"Ġarray":1792,"emp":1793,"ater":1794,"str":1795,"quired":1796,"Ġfloat":1797,"Hash":1798,"proto":1799,"update":1800,"Sec":1801,"Height":1802,"KEY":1803,"PRO":1804,"ĠSt":1805,"run":1806,"cale":1807,"air":1808,"oin":1809,"Job":1810,"ĠClass":1811,"from":1812,"ences":1813,"rint":1814,"Search":1815,"etwork":1816,"Ġmodel":1817,"Fl":1818,"Offset":1819,"Back":1820,"Ġgroup":1821,"Parent":1822,"ract":1823,"VER":1824,"InputStream":1825,"Ġoption":1826,"getD":1827,"quence":1828,"New":1829,"ĠCh":1830,"ermission":1831,")));":1832,"eed":1833,"Application":1834,"Ġexception":1835,"Ġnumber":1836,")).":1837,"resh":1838,"byte":1839,"Ġ[":1840,"Description":1841,"rix":1842,"Registry":1843,"ĊĠĠĠĠĠĠĠĠĠĠĠĠĠĠĠĠĠĠĠĠĠĠĠĠĠĠĠĠĠĠĠĠĠĠĠ":1844,"Ġsession":1845,"UM":1846,"Ġ%":1847,"ctx":1848,"notation":1849,"Ass":1850,"OG":1851,"ĠĠĠĠĠĠ":1852,"ists":1853,"ĠCollection":1854,"Root":1855,"ĠĊĉ":1856,"Ġcontent":1857,"Ġserver":1858,"ret":1859,"db":1860,"Work":1861,"Change":1862,"vis":1863,"Ġfail":1864,"match":1865,"execute":1866,"ĠDe":1867,"ailed":1868,"Ġhave":1869,"valueOf":1870,"Num":1871,"],":1872,"AC":1873,"Graph":1874,"printStackTrace":1875,"af":1876,"we":1877,"lector":1878,"ude":1879,"ĊĠĠĠĠĠĠ":1880,"Ġ10":1881,"max":1882,"ities":1883,"Ġlast":1884,"SH":1885,"ä¸":1886,"client":1887,"ĠIllegalArgumentException":1888,"Ġpart":1889,"Boolean":1890,"fs":1891,"imit":1892,"VI":1893,"Ġ>=":1894,"Pane":1895,"ĠReturn":1896,"Ġ{}":1897,"********":1898,"Changed":1899,"boolean":1900,"ĠĊĠĠĠĠ":1901,"Ġed":1902,"Ġline":1903,"qualTo":1904,"Metadata":1905,"ables":1906,"TI":1907,"Ċĉĉĉĉĉĉĉ":1908,"edia":1909,"UI":1910,"gin":1911,"atrix":1912,"ren":1913,"expected":1914,"Parser":1915,"lot":1916,"ĠHashMap":1917,"Control":1918,"ared":1919,"uid":1920,"RI":1921,"Ġtask":1922,"ments":1923,"Ġuse":1924,"count":1925,"Ġmod":1926,"entifier":1927,"mt":1928,"vok":1929,"annot":1930,"Ġentity":1931,"15":1932,"server":1933,"PO":1934,"Ġany":1935,"group":1936,"parator":1937,"Ġmsg":1938,"Player":1939,"gn":1940,"Ġnum":1941,"Ġcal":1942,"][":1943,"reen":1944,"uto":1945,"protobuf":1946,"+\"":1947,"Ġbuffer":1948,"EL":1949,"Ġhash":1950,"Transaction":1951,"urity":1952,"Ġnext":1953,"arsh":1954,"ynch":1955,"DB":1956,"orm":1957,"erson":1958,"Meta":1959,"Ġchar":1960,"reg":1961,"IOException":1962,"čĊčĊĉ":1963,"Doc":1964,"Bar":1965,"Co":1966,"ocket":1967,"čĊĉĉĉĉĉ":1968,"Loader":1969,"getF":1970,"Ġ6":1971,"util":1972,"Tim":1973,"xy":1974,"Rel":1975,"Ġone":1976,"Ġblock":1977,"witch":1978,"ĠGet":1979,"gr":1980,"licy":1981,"last":1982,"ĠLOG":1983,"čĊčĊĠĠĠĠĠĠĠ":1984,"Sup":1985,"Ġproperty":1986,"ground":1987,"Ġload":1988,"ĠView":1989,"Ġinter":1990,"trans":1991,"ĠTo":1992,"Port":1993,"Detail":1994,"Ġwhich":1995,"ategory":1996,"Ġtoken":1997,"'s":1998,"its":1999,"pect":2000,"igh":2001,"Ġstr":2002,"Ġgener":2003,"TER":2004,"ynchron":2005,"Ġroot":2006,"ĠData":2007,"ĠPro":2008,"illis":2009,"Ġfilter":2010,"ĠMath":2011,"getA":2012,"essages":2013,"uture":2014,"ys":2015,"Report":2016,"xml":2017,"entry":2018,"Title":2019,"ĠInt":2020,"JSON":2021,"Ġcode":2022,"99":2023,"loud":2024,"Ġwrite":2025,"float":2026,"Ġ\",":2027,"ViewById":2028,"Ġchild":2029,"Ġbuild":2030,"rs":2031,"ref":2032,"table":2033,"Ġurl":2034,"Channel":2035,"Ġlogger":2036,"endar":2037,"ke":2038,"Ġconnection":2039,"Resol":2040,"SC":2041,"ferences":2042,"enter":2043,"propert":2044,"erify":2045,"ĉĉĉ":2046,"ĊĉĠĠĠ":2047,"Max":2048,"state":2049,"char":2050,"AGE":2051,"Last":2052,"Ġfinally":2053,"Ġmin":2054,"Edit":2055,"Cell":2056,"ier":2057,"ags":2058,"send":2059,"<?>":2060,"Ġ\"/":2061,"local":2062,"Enum":2063,"Controller":2064,"dd":2065,"Ġass":2066,"MO":2067,"so":2068,"Ġlocal":2069,"ating":2070,"Ġproject":2071,"Template":2072,"FAULT":2073,"pend":2074,"rowable":2075,"response":2076,"avax":2077,"Fragment":2078,"Window":2079,"Style":2080,"Ġwork":2081,"stream":2082,"Cal":2083,"target":2084,"Iterator":2085,"mutable":2086,"Parameters":2087,"Interface":2088,"Selection":2089,"ise":2090,"Api":2091,"clear":2092,"Ġfr":2093,"imal":2094,"Ġso":2095,"getType":2096,"ĠStringBuilder":2097,"ries":2098,"reated":2099,"then":2100,"loy":2101,"ĠDate":2102,"ou":2103,"BO":2104,"nap":2105,"getText":2106,"Fields":2107,"Frame":2108,"Ġ#":2109,"IL":2110,"Ag":2111,"riteria":2112,"any":2113,"Execution":2114,"\"+":2115,"Body":2116,"Ġ--":2117,"formation":2118,"16":2119,"ĠHttp":2120,"ection":2121,"Editor":2122,"ric":2123,"Ġposition":2124,"Que":2125,"ĊĊĠĠĠĠĠĠĠĠĠĠĠĠĠĠĠĠĠĠĠ":2126,"Ġ\\\"":2127,"Ġloc":2128,"apply":2129,"delete":2130,"OutputStream":2131,"shot":2132,"++;":2133,"aint":2134,"Oper":2135,"vir":2136,"model":2137,"content":2138,"timeException":2139,"PER":2140,"ABLE":2141,"md":2142,"Ġonly":2143,"Bound":2144,"tx":2145,"inding":2146,"do":2147,"upported":2148,"GE":2149,"Ġfound":2150,"ape":2151,"ui":2152,"getKey":2153,"TAG":2154,"arshall":2155,"Ġspecified":2156,"tra":2157,"ures":2158,"Warn":2159,"Ġinit":2160,"draw":2161,"Ġparse":2162,"ersist":2163,"uri":2164,"Servlet":2165,"Ġinitial":2166,"Ġ8":2167,"SP":2168,"...":2169,"break":2170,"obj":2171,"ouse":2172,"unk":2173,"acter":2174,"ĠSh":2175,"br":2176,"Found":2177,"ear":2178,"Range":2179,"ignment":2180,"lem":2181,"ank":2182,"Us":2183,"Ġold":2184,"ope":2185,"Ġ<=":2186,"Ġparams":2187,"apache":2188,"Holder":2189,"Ġorder":2190,"escription":2191,"ingle":2192,"pres":2193,"ibility":2194,"Ġref":2195,"Intent":2196,"ens":2197,"super":2198,"aders":2199,"Ġpage":2200,"Ġremove":2201,"ounter":2202,"FF":2203,"Ġwas":2204,"register":2205,"ential":2206,"Mapping":2207,"Ġrem":2208,"ting":2209,"ĠAp":2210,"ãģ":2211,"Ġimage":2212,"stract":2213,"Account":2214,"Host":2215,"Ġmust":2216,"\".":2217,"('":2218,"itive":2219,"Directory":2220,"01":2221,"CTION":2222,"builder":2223,"pc":2224,"(@":2225,"Render":2226,"VALUE":2227,"====":2228,"Files":2229,"Ġjson":2230,"position":2231,"ancel":2232,"ally":2233,"pted":2234,"ulti":2235,"orre":2236,"Ġiter":2237,"uck":2238,"structor":2239,"Tool":2240,"Ġsec":2241,"Icon":2242,"ĠReturns":2243,"hash":2244,"parent":2245,"ĠAn":2246,"aved":2247,"ĊĉĉĉĊĉĉ":2248,"cul":2249,"Queue":2250,"ift":2251,"Wr":2252,"UP":2253,"If":2254,"Variable":2255,"napshot":2256,"Down":2257,"bl":2258,"(\"/":2259,"token":2260,"ĠK":2261,"Callback":2262,"tn":2263,"element":2264,"her":2265,"Ġvar":2266,"Ġmet":2267,"Min":2268,"entic":2269,"imension":2270,"ete":2271,"Ġcommand":2272,"sumer":2273,"uch":2274,"Tab":2275,"source":2276,"default":2277,"Schema":2278,"Bundle":2279,"itmap":2280,"mod":2281,"14":2282,"False":2283,"erge":2284,"Ġstream":2285,"object":2286,"Sp":2287,"lobal":2288,"ĠJSON":2289,"aster":2290,"viron":2291,"estamp":2292,"ination":2293,"Top":2294,"ename":2295,"ower":2296,"substring":2297,"Repository":2298,"Items":2299,"filter":2300,"part":2301,"valu":2302,"Ġ/*":2303,"Ġvis":2304,"ailable":2305,"num":2306,"see":2307,"values":2308,"ĊĠĠĠĠĠĠĠĠĠĠĠĠĠĠĠĠĠ":2309,"Ġused":2310,"bar":2311,"Ġ};":2312,"Ġ\");":2313,"Millis":2314,"ĠLong":2315,"fr":2316,"Ġhandle":2317,"ĠEx":2318,"Current":2319,"nown":2320,"Attributes":2321,"18":2322,"Ġversion":2323,"25":2324,"formed":2325,"čĊĠĠĠĠĠĠĠĠ":2326,"ĠByte":2327,"Ġparameters":2328,"Ign":2329,"Module":2330,"Uri":2331,"});":2332,"ĠBoolean":2333,"Assert":2334,"UID":2335,"ĠUn":2336,"Ġoffset":2337,"ploy":2338,"Region":2339,"Web":2340,"rics":2341,"SQL":2342,"uage":2343,"Ġpoint":2344,"SO":2345,"assertTrue":2346,"msg":2347,"Vector":2348,"voke":2349,"////":2350,"ĠUser":2351,"replace":2352,"vironment":2353,"ONE":2354,"::":2355,"river":2356,"Ġstatus":2357,"Ġper":2358,"Ġdb":2359,"version":2360,"VE":2361,"asic":2362,"Constraint":2363,"ĠTO":2364,"inter":2365,"Ġextends":2366,"(_":2367,"rop":2368,"Ġparameter":2369,"=\\\"":2370,"Notification":2371,"Ġsearch":2372,"Ġswitch":2373,"rec":2374,"Invalid":2375,"Ġjob":2376,"Keys":2377,"Ġmain":2378,"Term":2379,"column":2380,"gram":2381,"Ġtra":2382,"json":2383,"čĊĉĉĉĉĉĉ":2384,"atas":2385,"inue":2386,"process":2387,"Ids":2388,"project":2389,"flow":2390,"Pattern":2391,"very":2392,"ines":2393,"Ġ\"+":2394,"Obj":2395,"bstract":2396,"cer":2397,"Ġformat":2398,"HT":2399,"Ġdoes":2400,"ions":2401,"Ġfunction":2402,"Ġverify":2403,"Extension":2404,"ĠLoc":2405,"Ph":2406,"sb":2407,"Ġcomponent":2408,"13":2409,"resent":2410,"Mon":2411,"_.":2412,"iterator":2413,"ynchronized":2414,"oding":2415,"method":2416,"Protocol":2417,"plete":2418,"ZE":2419,"Internal":2420,"eg":2421,"ĠĠĠĠĠĠĠĠĠĠĠĠĠĠĠĠĠĠĠĠĠĠĠĠĠĠĠĠĠĠĠĠ":2422,"present":2423,"Ġinfo":2424,"uple":2425,"Role":2426,"ãĥ":2427,"ĠOption":2428,"base":2429,"call":2430,"},":2431,"Ġcache":2432,"Lock":2433,"ertex":2434,"Mock":2435,"change":2436,"Load":2437,"Ġproperties":2438,"Ġdate":2439,"ĠCreate":2440,"Ġmem":2441,"PRE":2442,"Ġlength":2443,"ĊĠĠĠĠĠĠĠĠĠĠĠĠĠĠĠĠĠĠĠĠĠĠĠĠĠĠĠĠĠĠĠĠĠĠĠĠĠĠĠ":2444,"Annotation":2445,"DA":2446,"thenReturn":2447,"hand":2448,"tr":2449,"roid":2450,"Pool":2451,"Ġfl":2452,"generated":2453,"IC":2454,"Policy":2455,"tom":2456,"ï¼":2457,"ERR":2458,"player":2459,"Sign":2460,"Ġtag":2461,"ĠNode":2462,"Ġab":2463,"ĠIntent":2464,"Ġmock":2465,"ume":2466,"Var":2467,"Suppress":2468,"Decl":2469,"status":2470,"resource":2471,"etch":2472,"XML":2473,"layout":2474,"copy":2475,"Results":2476,"ors":2477,"ious":2478,"ucket":2479,"output":2480,"inc":2481,"Warnings":2482,"LS":2483,"no":2484,"auth":2485,"LOG":2486,"Resources":2487,"Sequence":2488,"Msg":2489,"Endpoint":2490,"asList":2491,"Permission":2492,"Enc":2493,"ãĤ":2494,"open":2495,"eature":2496,"instance":2497,"The":2498,"greg":2499,"chedule":2500,"<>(":2501,"aining":2502,"wo":2503,"32":2504,"Ġtim":2505,"ordin":2506,"eas":2507,"Ġexecut":2508,"ules":2509,"ternal":2510,"Ġtemp":2511,"Ġq":2512,"Float":2513,"()),":2514,"setVis":2515,"Ġconvert":2516,"Step":2517,"Ġexist":2518,"Serial":2519,"Elements":2520,"ormal":2521,"Storage":2522,"First":2523,"Ġauth":2524,"Ġbase":2525,"getProperty":2526,"session":2527,"select":2528,"Feature":2529,"Ġconfiguration":2530,"oci":2531,"GER":2532,"100":2533,"FO":2534,"AM":2535,"lish":2536,"bserv":2537,"ays":2538,"Ġexecute":2539,"ANCE":2540,"}.":2541,"Display":2542,"eline":2543,"child":2544,"vo":2545,"ĠType":2546,"Mark":2547,"',":2548,"PT":2549,"Ind":2550,"inary":2551,"Progress":2552,"save":2553,"Ġag":2554,"ClickListener":2555,"Ġplayer":2556,"Ġdocument":2557,"page":2558,"Plugin":2559,"čĊĠĠĠĠĠĠĠĠĠĠĠĠĠĠĠĠĠĠĠĠĠĠĠ":2560,"Java":2561,"idget":2562,"64":2563,"Ġdoc":2564,"ement":2565,"Ġback":2566,"bol":2567,"nable":2568,"logger":2569,"clude":2570,"ached":2571,"rimary":2572,"Ġorig":2573,"tag":2574,"anner":2575,"src":2576,"ĊĊĉĉĉ":2577,"queue":2578,"Conf":2579,"ĠSe":2580,"hasNext":2581,"by":2582,"lt":2583,"Ġargument":2584,"comp":2585,"Custom":2586,"root":2587,"ORT":2588,"Exp":2589,"Fail":2590,"Ġdelete":2591,"Ġrecord":2592,"Ġthen":2593,"AX":2594,"ince":2595,"lation":2596,"getR":2597,"ifact":2598,"çļ":2599,"50":2600,"args":2601,"çļĦ":2602,"SuppressWarnings":2603,"ĠTODO":2604,"ĠSQL":2605,"host":2606,"Ġ(\"":2607,"ework":2608,"Ignore":2609,"Ġcomp":2610,"Database":2611,"DEFAULT":2612,"Ġco":2613,"(!":2614,"(){":2615,"><":2616,"US":2617,"ITY":2618,"ArrayList":2619,"ready":2620,"INT":2621,"swing":2622,"actor":2623,"Logger":2624,"Nodes":2625,"Ġ-->":2626,"Pair":2627,"td":2628,"ymbol":2629,"istory":2630,"ĠText":2631,"vious":2632,"anguage":2633,"foo":2634,"ĠDouble":2635,"Build":2636,"Post":2637,"SIZE":2638,"PAR":2639,"Identifier":2640,"ending":2641,"ramework":2642,"rie":2643,"Ġlistener":2644,"lip":2645,"Ġactual":2646,"!=":2647,"dir":2648,"Wrapper":2649,"Async":2650,"ero":2651,"čĊĉĉčĊĉ":2652,"ĠDefault":2653,"PI":2654,"COL":2655,"MS":2656,"ĠPl":2657,"\\\":":2658,"22":2659,"We":2660,"(\"\\":2661,"ERROR":2662,"Draw":2663,"iver":2664,"gment":2665,"Connect":2666,"ored":2667,"Ġwriter":2668,"ĠPar":2669,"STR":2670,"init":2671,"34":2672,"kip":2673,"vailable":2674,"NotFound":2675,"Ġlabel":2676,"down":2677,"EqualTo":2678,"IG":2679,"Ġdest":2680,"Ġ;":2681,"ĠItem":2682,"ffect":2683,"Success":2684,"Stats":2685,"Folder":2686,"make":2687,"redic":2688,"empty":2689,"Dao":2690,"split":2691,"ĠThread":2692,"CK":2693,"DS":2694,"var":2695,"Ġtop":2696,"location":2697,"mock":2698,"ĠPath":2699,"Ġoptions":2700,"Ġempty":2701,"ĠRuntimeException":2702,"service":2703,"Ġjavax":2704,"Pointer":2705,"Ġreader":2706,"!--":2707,"iff":2708,"Rece":2709,"olve":2710,"ict":2711,"Ġresults":2712,"AS":2713,"ning":2714,"task":2715,"Ġthread":2716,"Prefix":2717,"Ġreference":2718,"bers":2719,"ĊĊ":2720,"ĠImmutable":2721,"orrect":2722,"Ġrule":2723,"top":2724,"17":2725,"åı":2726,"Ġ7":2727,"Device":2728,"24":2729,"cs":2730,"met":2731,"lease":2732,"Ġbefore":2733,"Ġpack":2734,"Ġ<!--":2735,"Eng":2736,"scrib":2737,"Dist":2738,"ĠIter":2739,"ene":2740,"option":2741,"Ġafter":2742,"first":2743,"END":2744,"ibr":2745,"box":2746,"angle":2747,"ĠTrans":2748,"Ġnames":2749,"Ġshow":2750,"Profile":2751,"Ġattribute":2752,"width":2753,"ĠInput":2754,"MAX":2755,"Ġneed":2756,"Decimal":2757,"NE":2758,"iod":2759,"ĠAdd":2760,"plement":2761,"Ġbuf":2762,"irt":2763,"Open":2764,"sWith":2765,"Xml":2766,"Active":2767,"Failed":2768,"19":2769,"title":2770,"inish":2771,"ervices":2772,"getT":2773,"Ġcopy":2774,"Handle":2775,"ultip":2776,"[]{":2777,"Details":2778,"30":2779,"imum":2780,"Left":2781,"BU":2782,"search":2783,"atal":2784,"Ġover":2785,"Ġsynchronized":2786,"ĊĠĠĠĠĠĠĠĠĠĠĠĠĠĠ":2787,"sql":2788,"wner":2789,"Wh":2790,"Ġac":2791,"/*":2792,"Ġintent":2793,"ĠĠĠĠĠĠĠĠĠĠĠĠĠĠĠ":2794,"Nullable":2795,"buffer":2796,"Bl":2797,"bit":2798,"ds":2799,"ĠIN":2800,"rea":2801,"ilename":2802,"block":2803,"ied":2804,"redential":2805,"Ġbut":2806,"icon":2807,"ived":2808,"color":2809,"Ġsend":2810,"One":2811,"cription":2812,"Only":2813,"ublish":2814,"Resolver":2815,"Ġoperation":2816,"Edge":2817,"Processor":2818,"ĠJson":2819,"Ġsp":2820,"MENT":2821,"Ġexp":2822,"rupted":2823,".\",":2824,"Anim":2825,"getCurrent":2826,"Before":2827,"ward":2828,"ution":2829,"hashCode":2830,"Network":2831,"ased":2832,"Short":2833,"easure":2834,"iteral":2835,"Ġmake":2836,"Core":2837,"ĠSimple":2838,"atient":2839,"TIME":2840,"Ġthere":2841,"olute":2842,"addAll":2843,"Ġcontainer":2844,"ique":2845,"mark":2846,"ĠID":2847,"Password":2848,"Delete":2849,"ads":2850,"ataset":2851,"irection":2852,"ategy":2853,"image":2854,"Product":2855,"ority":2856,"getData":2857,"ĠResponse":2858,"ĠĠĠĠĠĠĠĠĠĠĠĠ":2859,"atform":2860,"Ġ\"\";":2861,"InstanceState":2862,"Engine":2863,"Generator":2864,"space":2865,"Ġbytes":2866,"Ġport":2867,"ĠMock":2868,"scription":2869,"Ġright":2870,"Script":2871,"xis":2872,"Scope":2873,"board":2874,"ged":2875,"FOR":2876,"ĠCheck":2877,"getDefault":2878,"pute":2879,"cloud":2880,"čĊĠ":2881,"unc":2882,"ĠArrays":2883,"Track":2884,"Ġconf":2885,"Future":2886,"NotFoundException":2887,">()":2888,"pack":2889,"ollow":2890,"DTO":2891,"vt":2892,"GL":2893,"Mapper":2894,"ool":2895,"Condition":2896,"80":2897,"aterial":2898,"inder":2899,"ĠURL":2900,"ty":2901,"entication":2902,"åĪ":2903,"ĠAction":2904,"Art":2905,"voc":2906,"redicate":2907,"parseInt":2908,"Initial":2909,"eries":2910,"Ġfactory":2911,"ocus":2912,"Ġctx":2913,"ĠOptional":2914,"catch":2915,"Ġlocation":2916,"connect":2917,"getInt":2918,"Ġind":2919,"trim":2920,"};":2921,"Ġwhere":2922,"Ġaccess":2923,"Ġrequired":2924,"Ġhttp":2925,"Executor":2926,"Ġinto":2927,"Ġ100":2928,"findViewById":2929,"aly":2930,"ww":2931,"ĠTime":2932,"html":2933,"while":2934,"Ġfiles":2935,"Write":2936,"Ġenc":2937,"ĠKey":2938,"heet":2939,"ĠMessage":2940,"OT":2941,"now":2942,"Member":2943,"005":2944,"ĠLocal":2945,"Ġ\".":2946,"ved":2947,"Ġwidth":2948,"SET":2949,"anges":2950,"Ġbegin":2951,"Convert":2952,"Timeout":2953,"oll":2954,"Ġaccount":2955,"Ġusing":2956,"anch":2957,"ĠAl":2958,"ĠBuffer":2959,"Cluster":2960,"property":2961,"Ġregister":2962,"over":2963,"Performed":2964,"NON":2965,"Rout":2966,"dated":2967,"Desc":2968,"ade":2969,"compare":2970,"Extra":2971,"Ġleft":2972,"ĠPsi":2973,"can":2974,"Messages":2975,"Ġu":2976,"Ġsuccess":2977,"gl":2978,"rad":2979,"lear":2980,"ĠPre":2981,"ruptedException":2982,"isEqualTo":2983,"----------------":2984,"known":2985,"Ġcontinue":2986,"Children":2987,"Ġheight":2988,"stru":2989,"etry":2990,"Flow":2991,"warn":2992,"Dto":2993,"Cre":2994,"Math":2995,"Ġqu":2996,"jsp":2997,"PA":2998,"Ġselected":2999,"Socket":3000,"apped":3001,"oved":3002,"Grid":3003,"ORD":3004,"ĠService":3005,"(\",":3006,"checked":3007,"Ġ\"\\":3008,"Ġdialog":3009,"Ġoper":3010,"iag":3011,"Select":3012,"avedInstanceState":3013,"SION":3014,"aded":3015,"RA":3016,"the":3017,"Def":3018,"Ġdatabase":3019,"ĠVector":3020,"Rest":3021,":\"":3022,"ipe":3023,"Debug":3024,"ayload":3025,"Ġbeen":3026,"Ġmay":3027,"edi":3028,"ĠResource":3029,"Ġextension":3030,"ĠCollections":3031,"andard":3032,"post":3033,"Ġ},":3034,"Ġims":3035,"store":3036,"Ġyou":3037,"VO":3038,"net":3039,"ason":3040,"Background":3041,"Ġsign":3042,"getL":3043,"getUser":3044,"Ġsecond":3045,"Matrix":3046,"icle":3047,"Ġsame":3048,"azz":3049,"Partition":3050,"Ġcannot":3051,"setS":3052,"ĠInter":3053,"ĠBlock":3054,"ES":3055,"TED":3056,"containsKey":3057,"mem":3058,"vi":3059,"Arrays":3060,"chedul":3061,"Ġhost":3062,"ĠRequest":3063,"Media":3064,"Pr":3065,"struction":3066,"insert":3067,"cre":3068,"Vo":3069,"Bounds":3070,"(-":3071,"irtual":3072,"legate":3073,"Ġ9":3074,"ker":3075,"ĠQuery":3076,"validate":3077,"wn":3078,"Ġ12":3079,"Ġsql":3080,"ration":3081,"inner":3082,"unch":3083,"mary":3084,"Ġchannel":3085,"Remote":3086,"ability":3087,"Preferences":3088,"IgnoreCase":3089,"df":3090,"oot":3091,"ĠLink":3092,"patch":3093,"Environment":3094,"Ġreturned":3095,"API":3096,"label":3097,"vas":3098,"55":3099,"='":3100,"indexOf":3101,"ĠApp":3102,"Ġprint":3103,"ixel":3104,"Ġopen":3105,"Ġgraph":3106,"Cap":3107,"Game":3108,"Struct":3109,"Transform":3110,"NonNull":3111,"TP":3112,"ging":3113,"ĠĠĠĠĠĠĠĠĠ":3114,"getO":3115,"issing":3116,"setOn":3117,"Events":3118,"Calendar":3119,"Vari":3120,"TimeMillis":3121,"orted":3122,"Ċĉĉĉĉĉĉĉĉ":3123,"IP":3124,"ĠEntity":3125,"ĠDE":3126,"čĊĠĠ":3127,"Ġcluster":3128,"ision":3129,"exception":3130,">\");":3131,"ced":3132,"Area":3133,"Simple":3134,"ugh":3135,"logy":3136,"Email":3137,"Ġxml":3138,"ĊĠĠĠĠĉ":3139,"Ġcolor":3140,"ĠassertNotNull":3141,"Ġsrc":3142,"Card":3143,"QU":3144,"rigger":3145,"Category":3146,"UB":3147,"sl":3148,"void":3149,"Ġallow":3150,"Font":3151,"Main":3152,"ĠAr":3153,"STANCE":3154,"vocation":3155,"Plan":3156,"left":3157,"ideo":3158,"Ġtmp":3159,"Ġ++":3160,"StateException":3161,"Ġalready":3162,"atalog":3163,"._":3164,"ipeline":3165,"ferred":3166,"OK":3167,"Ġconn":3168,"GET":3169,"amed":3170,"')":3171,"uc":3172,"Ġtotal":3173,"\":":3174,"CATION":3175,"TextView":3176,"Ġrs":3177,"Criteria":3178,"anel":3179,"MM":3180,"NG":3181,"Ġaddress":3182,"Ġsave":3183,"ĠonClick":3184,"Ġ\"_":3185,"Ġign":3186,"getResource":3187,"ĠBuilder":3188,"ynam":3189,"NLS":3190,"Vertex":3191,">)":3192,"FILE":3193,"Ġheader":3194,"RED":3195,"PAT":3196,"main":3197,"ĠAtt":3198,"ertific":3199,"vision":3200,"cast":3201,"pth":3202,"74":3203,"Ġuri":3204,"ensor":3205,"Proxy":3206,"Operator":3207,"Ġstore":3208,"Sum":3209,")))":3210,"Rect":3211,"ottom":3212,"ĠZ":3213,"initial":3214,"Ġclose":3215,"ĠThrowable":3216,"framework":3217,"exists":3218,"Metrics":3219,"setValue":3220,"igDecimal":3221,"Contact":3222,"DATE":3223,"ias":3224,"ĠImage":3225,"Ġpass":3226,"Domain":3227,"Right":3228,"core":3229,"Ġlink":3230,"random":3231,"After":3232,"ĊĠĠĠĠĠĠĠĠĠĠĠĠĠĠĠĠĠĠĠĠ":3233,"Ġcreated":3234,"****************":3235,"arshaller":3236,"ik":3237,"temp":3238,"reates":3239,"ĠJava":3240,"fined":3241,"CODE":3242,"ULL":3243,"Ġrece":3244,"Throwable":3245,"ĠMethod":3246,"ccur":3247,"Admin":3248,"Limit":3249,"aunch":3250,"blem":3251,"connection":3252,"Security":3253,"IS":3254,"Ġfields":3255,"ATA":3256,"pose":3257,"XT":3258,"leep":3259,"ĠResult":3260,"Scroll":3261,"ĠHashSet":3262,"Memory":3263,"Binding":3264,"Ġchange":3265,"command":3266,"Ġdraw":3267,"Ġstack":3268,"World":3269,"ario":3270,"Ġnon":3271,"Ġhandler":3272,"Constraints":3273,"igned":3274,"Args":3275,"40":3276,"right":3277,"Renderer":3278,"ma":3279,"yy":3280,"åĲ":3281,"ns":3282,"Ġnow":3283,"job":3284,"ets":3285,"channel":3286,"stances":3287,"##":3288,"equalsIgnoreCase":3289,"lay":3290,"ventory":3291,"ĠassertFalse":3292,"acity":3293,"cent":3294,"opul":3295,"Note":3296,"currentTimeMillis":3297,"fields":3298,"bsolute":3299,"ĠY":3300,"Ġexpression":3301,"IM":3302,"Op":3303,"names":3304,"when":3305,"stack":3306,"ful":3307,"ibrary":3308,"oop":3309,"ĠOn":3310,"Present":3311,"Ġfailed":3312,"udio":3313,"MIN":3314,"60":3315,"body":3316,"Inner":3317,"Ġtree":3318,"iler":3319,"*/":3320,"ux":3321,"offset":3322,"ured":3323,"tree":3324,"params":3325,"Ġ20":3326,"HashMap":3327,"Ġinsert":3328,"Ġoriginal":3329,"ĠBuffered":3330,"invoke":3331,"Ġstop":3332,"Ġbean":3333,"Ġ,":3334,"Ġcustom":3335,"UTF":3336,"Batch":3337,"Validation":3338,"Author":3339,"Border":3340,"ĠRE":3341,"Ġ\"'":3342,"Headers":3343,"SELE":3344,"{}":3345,"Ġdist":3346,"OP":3347,"Ġput":3348,"verse":3349,"ĠModel":3350,"Cursor":3351,"OUT":3352,"Throw":3353,"setEnabled":3354,"INSTANCE":3355,"Ġparser":3356,"Ġcollection":3357,"ĠXML":3358,"Ġtemplate":3359,"Expr":3360,"Ġwr":3361,"fail":3362,"AND":3363,"ACK":3364,"ĠValue":3365,"Am":3366,"Parse":3367,"Lower":3368,"nt":3369,"iction":3370,"bservable":3371,"Ġcontains":3372,"ycle":3373,"getStatus":3374,"Ġapplication":3375,"Ġcallback":3376,"arm":3377,"Columns":3378,"pha":3379,"assertThat":3380,"OF":3381,"gor":3382,"Ġ()":3383,"Consumer":3384,"INE":3385,"Ġcell":3386,"Ġschema":3387,"idd":3388,"ĠNo":3389,"\")));":3390,"Ġrest":3391,"ACTION":3392,"ActionEvent":3393,"getX":3394,"wer":3395,"Ac":3396,"Db":3397,"CONT":3398,"getContext":3399,"ĠWe":3400,"Ġbutton":3401,"Ġeach":3402,"atures":3403,"Ġthrown":3404,"Ġframe":3405,"Sql":3406,"sets":3407,"Ġ//$":3408,"riority":3409,"');":3410,"height":3411,"component":3412,"Ġthan":3413,"CA":3414,"200":3415,"Ġtx":3416,"Ġitems":3417,"ynamic":3418,"æľ":3419,"ayment":3420,"convert":3421,"ĠColor":3422,"æĸ":3423,"ather":3424,"ily":3425,"herit":3426,"gorith":3427,"Ġserial":3428,"(\"<":3429,"ĠPoint":3430,"Dest":3431,"(((":3432,"ĠEvent":3433,"Ġop":3434,"Strategy":3435,"Ġits":3436,"Ali":3437,"ĠfindViewById":3438,"ous":3439,"eners":3440,"number":3441,"Interval":3442,"Ġtitle":3443,"startsWith":3444,"Ġ{}\",":3445,"ultiple":3446,"Copy":3447,"ĠDocument":3448,"Ġdescription":3449,"Show":3450,"\",\"":3451,"flater":3452,"Ġdisplay":3453,"Off":3454,">\\":3455,"Ġapply":3456,"Ġmetadata":3457,"HE":3458,"posite":3459,"75":3460,"ĠtoString":3461,"Ġrandom":3462,"supported":3463,"ertificate":3464,"getParent":3465,"cache":3466,"ALL":3467,"stop":3468,"PTION":3469,"Ġdes":3470,"setName":3471,"ords":3472,"tml":3473,"properties":3474,"ï¼Į":3475,"ito":3476,"ĠContext":3477,"conf":3478,"IO":3479,"orter":3480,"getAttribute":3481,"thing":3482,"ROM":3483,"ĠFor":3484,"Can":3485,"Failure":3486,"ular":3487,"Ġmark":3488,"gen":3489,"ood":3490,"Single":3491,"ĠField":3492,"Ġmore":3493,"Complet":3494,"DateTime":3495,">.":3496,"ĠIllegalStateException":3497,"txt":3498,"Ġdirectory":3499,"Ġrange":3500,"Bus":3501,"istics":3502,"Ġrepresent":3503,"Red":3504,"ä»":3505,"itude":3506,"ELD":3507,"sure":3508,"ĠCal":3509,"è¯":3510,"Character":3511,"()[":3512,"unchecked":3513,"Ġreport":3514,"DAO":3515,"CHE":3516,"Objects":3517,"olume":3518,"Screen":3519,"Timestamp":3520,"ĠToast":3521,"Layer":3522,"wise":3523,"ump":3524,"APP":3525,"ng":3526,"iness":3527,"Ġcursor":3528,"Bag":3529,"OM":3530,"ĠURI":3531,"getPath":3532,"Ġdesc":3533,"card":3534,"ĠLinked":3535,"gorithm":3536,"plic":3537,"getIn":3538,"Ġvisit":3539,"domain":3540,"side":3541,"TEXT":3542,"ween":3543,"ĠSQLException":3544,"cp":3545,"ĠRem":3546,"Ġlevel":3547,"Proto":3548,"setVisibility":3549,"getParameter":3550,"getItem":3551,"Ġselect":3552,"alm":3553,"eer":3554,"static":3555,"dk":3556,"Person":3557,"ĠConfiguration":3558,"Ġactivity":3559,"tim":3560,"hav":3561,"USER":3562,"Ġlayout":3563,"leton":3564,"prot":3565,"Ġph":3566,"losed":3567,"abs":3568,")\");":3569,"Ġregion":3570,"Ġelements":3571,"Ġel":3572,"sible":3573,"ĠNull":3574,"ested":3575,"setProperty":3576,"ĠhashCode":3577,"Global":3578,"sec":3579,"Ġbody":3580,"active":3581,"opup":3582,"awt":3583,"Ġgenerate":3584,"NGTH":3585,"application":3586,"ĠRunnable":3587,"Full":3588,"Ġmenu":3589,"ĊĠĠĠĠĠĠĠĠĠĠĠĠĠĠĠĠĠĠĠĠĠĠĠĠĠĠĠĠĠĠĠĠĠĠĠĠĠĠĠĠĠĠĠĠĠĠĠĠĠĠĠĠĠĠĠĠ":3590,"redentials":3591,"Ġreturns":3592,"bserver":3593,"Ġpattern":3594,"Ġpassword":3595,"mar":3596,"etween":3597,".<":3598,"req":3599,"Ġinst":3600,"activity":3601,"ĠGrid":3602,"button":3603,"aration":3604,"uite":3605,"PointerException":3606,"History":3607,"DF":3608,"Ġ).":3609,"Use":3610,"Ġam":3611,"Ġreq":3612,"ases":3613,"!\");":3614,"LENGTH":3615,"getSub":3616,"Ġmon":3617,"Look":3618,"estion":3619,"56":3620,"Space":3621,"getY":3622,"ACT":3623,"WN":3624,"Qual":3625,"afe":3626,"plier":3627,"coded":3628,"ĠGener":3629,"files":3630,"anagement":3631,"Illegal":3632,"ech":3633,"Ġworld":3634,"URE":3635,"Print":3636,"book":3637,"sort":3638,"Packet":3639,"ĠInputStream":3640,"JE":3641,"Ġequals":3642,"Ġterm":3643,"ĊĊĠĠĠĠĠĠĠĠĠĠĠĠĠĠĠĠĠĠĠĠĠĠĠ":3644,"avig":3645,"ixed":3646,"exp":3647,"ĠIndex":3648,"ship":3649,"Support":3650,"okup":3651,"description":3652,"wait":3653,"Ġbound":3654,"ĠÐ":3655,"Ġwait":3656,"Widget":3657,"Ġdomain":3658,"ired":3659,"gt":3660,"Converter":3661,"Abstract":3662,"MetaData":3663,"getContent":3664,"Visible":3665,"Validator":3666,"Ġpost":3667,"ĠCreates":3668,"rimitive":3669,"QUE":3670,"ws":3671,"Ġstruct":3672,"ior":3673,"Ġstep":3674,"handle":3675,"graph":3676,"ourse":3677,"Ġrender":3678,"world":3679,"Ġprefix":3680,"Fac":3681,"{@":3682,"ling":3683,"cheduler":3684,"Agent":3685,"></":3686,"eam":3687,"Ġbec":3688,"Collector":3689,"Ġvalidate":3690,"UUID":3691,"full":3692,"otion":3693,"čĊčĊĉĉ":3694,"Ġdir":3695,"OB":3696,"Ġapi":3697,"andid":3698,"ĠTable":3699,"CESS":3700,"short":3701,"ĠJSONObject":3702,"ories":3703,"condition":3704,"Literal":3705,"mb":3706,"Ġap":3707,"fill":3708,"ducer":3709,"olution":3710,"Ġsettings":3711,"Runtime":3712,"Required":3713,"TEST":3714,"ogn":3715,"getFile":3716,"selected":3717,"Ċĉĉĉĉĉĉĉĉĉĉ":3718,"Stop":3719,"Random":3720,"edit":3721,"escriptor":3722,"Snapshot":3723,"reset":3724,"ĠChar":3725,"========":3726,"rift":3727,"getTime":3728,"Ġsystem":3729,"achine":3730,"MenuItem":3731,"ServletRequest":3732,"ike":3733,"internal":3734,"Rate":3735,"Locale":3736,"Counter":3737,"Ġiterator":3738,"Remove":3739,"Second":3740,"ĊĠĠĠĠĊĠĠĠ":3741,"iss":3742,"GroupName":3743,"Ġeditor":3744,")),":3745,"Man":3746,"Namespace":3747,"Ġtransaction":3748,"getBytes":3749,"Ġmodule":3750,"Ġjj":3751,"getH":3752,"Language":3753,"commit":3754,"90":3755,"ins":3756,"urrency":3757,"ĠWeb":3758,"Ġmanager":3759,"getColumn":3760,"AST":3761,"æķ":3762,"Ġdown":3763,"light":3764,"ended":3765,"eme":3766,"STAT":3767,"clone":3768,"ookie":3769,"Ġnodes":3770,"era":3771,"amily":3772,"ĠIterator":3773,"Ġprevious":3774,"Tuple":3775,"WS":3776,"alyz":3777,"raft":3778,"Move":3779,"\")).":3780,"DATA":3781,"cheme":3782,"IVE":3783,"Ġcalled":3784,"dest":3785,"getE":3786,"Groups":3787,"Relation":3788,"Rad":3789,"Segment":3790,"Ġhere":3791,"cope":3792,"Ġimplement":3793,"jspx":3794,"SELECT":3795,"ek":3796,"Ġexisting":3797,"Encoding":3798,"ĠDis":3799,"ipal":3800,"GroupLayout":3801,"ĠAbstract":3802,"Monitor":3803,"ained":3804,"NOT":3805,"Rows":3806,"Ġattributes":3807,"Connector":3808,"LD":3809,"ĊĠĠĠĠĠĠĠĠĠĠĠĠĠĠĠĠĠĠĠĠĠ":3810,"])":3811,"bind":3812,"tax":3813,"yc":3814,"è¿":3815,"Ġmeta":3816,"term":3817,"mission":3818,"Tags":3819,"urve":3820,"Ġ16":3821,"88":3822,"LowerCase":3823,"Ġ\"-":3824,"Import":3825,"Ġqueue":3826,"REN":3827,"23":3828,"late":3829,"ART":3830,"Ġpr":3831,"ta":3832,"Selector":3833,"pared":3834,"Ġme":3835,"sm":3836,"ped":3837,"spec":3838,"Do":3839,"ĠProperty":3840,"Comment":3841,"Ġ'\"":3842,"cat":3843,"Cancel":3844,"Ġlock":3845,"Ġfull":3846,"Depend":3847,"ĠElement":3848,"ampl":3849,"Ver":3850,"Register":3851,"Nonnull":3852,"MAT":3853,"bound":3854,"Ġcompare":3855,"STRING":3856,"CRE":3857,"cel":3858,"VERSION":3859,"peed":3860,"[][]":3861,"charAt":3862,"orig":3863,"address":3864,"BLE":3865,"FIELD":3866,"Bitmap":3867,"Paint":3868,"getWidth":3869,"Section":3870,"prec":3871,"ether":3872,"VICE":3873,"ault":3874,"ison":3875,"Ġdevice":3876,"StringUtils":3877,"Entries":3878,"PATH":3879,"Login":3880,"Preference":3881,"incipal":3882,"Join":3883,"ĠClient":3884,"ĠBuild":3885,"roy":3886,"ifiers":3887,"Ip":3888,"cluster":3889,"UND":3890,"Duration":3891,"MI":3892,"hs":3893,"used":3894,"Org":3895,"\\\",":3896,"ges":3897,"Ġrel":3898,"Book":3899,"bt":3900,"External":3901,"Ðµ":3902,"Ge":3903,"å®":3904,"Ġsplit":3905,"Ġoccur":3906,"Errors":3907,"Play":3908,"fg":3909,"verify":3910,"olver":3911,"Focus":3912,"rem":3913,"ysis":3914,"Ġsum":3915,"rypt":3916,"Ġsetup":3917,"LOW":3918,"iffer":3919,"////////":3920,"Annot":3921,"Close":3922,"Ġclear":3923,">\"":3924,"tmp":3925,"accept":3926,"Ġmode":3927,"SSAGE":3928,"ĠObjects":3929,"sole":3930,"Ġavailable":3931,"switch":3932,"Temp":3933,"Ġpartition":3934,";</":3935,"sel":3936,"ĠParam":3937,"Ġstatement":3938,"bean":3939,"Ġsome":3940,"culate":3941,"Des":3942,"bed":3943,"PROPER":3944,"oring":3945,"intValue":3946,"Multi":3947,"oriz":3948,"Ġkeys":3949,"azon":3950,"ĠAPI":3951,"UNT":3952,"Binary":3953,"reader":3954,"JECT":3955,"ian":3956,"Ġvariable":3957,"Reg":3958,"Ġassoci":3959,"admin":3960,"Common":3961,"ĠčĊĉ":3962,"getHeight":3963,"ims":3964,"ĠequalTo":3965,"Gr":3966,"Ð°":3967,"arge":3968,"33":3969,"My":3970,"čĊĠĠĠĠĠĠĠĠĠ":3971,"engine":3972,"SECON":3973,"join":3974,"Ġlen":3975,"span":3976,"Period":3977,"CP":3978,"Aggreg":3979,"Mouse":3980,"enant":3981,"Ġne":3982,"00000000":3983,"generate":3984,"CL":3985,"ĠCall":3986,"Ġ\"<":3987,"Ġ\"\");":3988,"ses":3989,"oom":3990,"1000":3991,"Artifact":3992,"ĠonCreate":3993,"oper":3994,"elf":3995,"Ġconnect":3996,"Persist":3997,"toArray":3998,"toLowerCase":3999,"||":4000,"ĊĠĠĠĠĠĠĠĠĠĠĠĠĠĠĠĠĠĠĠĠĠĠĠĠĠĠĠĠĠĠĠĠĠĠĠĠĠĠĠĠĠĠĠ":4001,"Complete":4002,"getN":4003,"ĠAct":4004,"FT":4005,"ven":4006,"()){":4007,"rag":4008,"å¤":4009,"Flag":4010,"menu":4011,"Each":4012,"dbc":4013,"Gen":4014,"ĠTask":4015,"Ġprovider":4016,"čĊčĊĠĠĠĠĠĠĠĠĠĠĠ":4017,"Commit":4018,"keySet":4019,"Ġobjects":4020,"go":4021,"listener":4022,"Usage":4023,"PC":4024,"prepare":4025,"BA":4026,"Arguments":4027,"intent":4028,"Ret":4029,"coder":4030,"Ġplugin":4031,"container":4032,"Ġactive":4033,"_,":4034,"Tick":4035,"åĬ":4036,"utdown":4037,"oly":4038,"ordinate":4039,"trace":4040,"document":4041,"hel":4042,"als":4043,"Ġcre":4044,"oto":4045,"ores":4046,"ployment":4047,"def":4048,"TA":4049,"types":4050,"ways":4051,"Information":4052,"Ġ\").":4053,"Ġ1000":4054,"Actions":4055,"ĠactionPerformed":4056,"HO":4057,"Ġshort":4058,"çĶ":4059,"account":4060,"inherit":4061,"etails":4062,"aa":4063,"Topic":4064,",\"":4065,"Kind":4066,"ĠĊĉĉ":4067,"ĊĠĠĠĠĠĠĠĠĠĠ":4068,"irm":4069,"El":4070,"assertNotNull":4071,"LAY":4072,"sleep":4073,"report":4074,"getAbsolute":4075,"entrySet":4076,"cursor":4077,"getSelected":4078,"Ġproduct":4079,"TABLE":4080,"function":4081,"Ġsort":4082,"ĠSub":4083,"COMP":4084,"Ġbecause":4085,"66":4086,"getNode":4087,"Ġreplace":4088,"Chain":4089,"Ġ(!(":4090,"Syn":4091,"Ġstyle":4092,"rest":4093,"Refresh":4094,"ĠCl":4095,"Ġadded":4096,"ius":4097,"alth":4098,"Ġinformation":4099,"FileName":4100,"Unknown":4101,"ĊĠĠĠĠĠĠĠĠĠĠĠĠĊĠĠĠĠĠĠĠĠĠĠĠ":4102,"78":4103,"Auto":4104,"alle":4105,"ĠDB":4106,"compareTo":4107,"čĊĠĠĠĠĠĠĠĠĠĠĠĠĠĠĠĠĠĠĠĠĠĠĠĠĠĠĠ":4108,"02":4109,"cv":4110,"This":4111,"Ġbo":4112,"Conn":4113,"tab":4114,"vid":4115,"Ġarguments":4116,"ugg":4117,"Metric":4118,"ĠConfig":4119,"Ġtypes":4120,"Ġreg":4121,"izable":4122,"resolve":4123,"Checked":4124,")\",":4125,"ware":4126,"achment":4127,"Split":4128,"render":4129,"Ġwindow":4130,"HER":4131,"Ġfeature":4132,"Cam":4133,"javax":4134,"ranch":4135,"ĠProject":4136,"Ġbit":4137,"rule":4138,"oder":4139,"ĠLOGGER":4140,"æķ°":4141,"ado":4142,"åħ":4143,"Ġmatrix":4144,"ĠStringBuffer":4145,"FIN":4146,"Save":4147,"atew":4148,"xx":4149,"Zone":4150,"newInstance":4151,"begin":4152,"LL":4153,"Ġpermission":4154,"ORY":4155,">,":4156,"btn":4157,"Ġexecution":4158,"ĊĉĠĠĠĠ":4159,"Ġmerge":4160,"ĠMod":4161,"Tile":4162,"Ġio":4163,"TextField":4164,"MESSAGE":4165,"Exists":4166,"parison":4167,"valuate":4168,"Ġaccept":4169,"Slot":4170,"cur":4171,"Ġprops":4172,"Ġprotocol":4173,"ictionary":4174,"ĠAs":4175,"Ġcor":4176,"Ġconstructor":4177,"vm":4178,"ĠQ":4179,"getActivity":4180,"Identity":4181,"Chat":4182,"Ġlimit":4183,"Ġdec":4184,"frame":4185,"PUT":4186,"Classes":4187,"Psi":4188,"custom":4189,"ĊĉĉĠĠĠ":4190,"Expected":4191,"ĠAuto":4192,"Ġcolumns":4193,"Depth":4194,"(()":4195,"Driver":4196,"rip":4197,"Ġdone":4198,"Ġdef":4199,"Points":4200,"ĠCommand":4201,"nel":4202,"adding":4203,"[])":4204,"icip":4205,"Collections":4206,"ĠByteArray":4207,"Animation":4208,"&&":4209,"grid":4210,"unit":4211,"ClassName":4212,"itional":4213,"Sort":4214,"ĠStream":4215,"ites":4216,"collect":4217,"Ġoff":4218,"vers":4219,"ByteArray":4220,"Ð¾":4221,"lta":4222,"76":4223,"Ġ\"\",":4224,"step":4225,"Ġcap":4226,"Score":4227,"ĠConnection":4228,"getLocal":4229,"Ġfollow":4230,"record":4231,"ITE":4232,"eep":4233,"Ġ$":4234,"70":4235,"SU":4236,"Same":4237,"header":4238,"Scale":4239,"total":4240,"Ġtab":4241,"Allow":4242,"Dimension":4243,"Declaration":4244,"inheritDoc":4245,"getV":4246,"setP":4247,"Components":4248,"Ġtwo":4249,"rade":4250,"Chunk":4251,"ĠAd":4252,"conn":4253,"Ġremote":4254,"havior":4255,"_;":4256,"Ġselection":4257,"configuration":4258,"ĠsavedInstanceState":4259,"Equal":4260,"Ġcorrect":4261,"verage":4262,"ATTR":4263,"password":4264,"Ġinitialize":4265,"ĠGroup":4266,"reshold":4267,"Axis":4268,"Ġprogress":4269,"ĠProperties":4270,"iment":4271,"BER":4272,"Combo":4273,"ateway":4274,"jo":4275,"Ġcur":4276,"Ġdon":4277,"ĊĉĉĉĉĊĉĉĉ":4278,"ĠServer":4279,")){":4280,"READ":4281,"des":4282,"ceptor":4283,"Symbol":4284,"Writ":4285,"Feed":4286,"Finish":4287,"Observer":4288,"dates":4289,"ĠTree":4290,"ĠSc":4291,"Ġar":4292,"getAll":4293,"udent":4294,"Weight":4295,"ĠNumber":4296,"fos":4297,"åŃ":4298,"æĪ":4299,"Word":4300,"setC":4301,"FL":4302,"merge":4303,"Comparator":4304,"AsString":4305,"Authentication":4306,"Day":4307,"Setting":4308,"Ġfragment":4309,"ole":4310,"rough":4311,"roke":4312,"Ġ(_":4313,"plex":4314,"Uuid":4315,"NUM":4316,"ITION":4317,"ĠSets":4318,"udit":4319,"Static":4320,"matches":4321,"roker":4322,"CLA":4323,"getChild":4324,"attribute":4325,"Ġinternal":4326,"Ġtrack":4327,"scribe":4328,"Owner":4329,"gistry":4330,"Modified":4331,"ĠDel":4332,"sn":4333,"SIBLE":4334,"Signature":4335,"UMN":4336,"Prop":4337,"ATOR":4338,"0000000":4339,"Ab":4340,"ĠParse":4341,"jj":4342,"bin":4343,"pts":4344,"Ġunit":4345,"PROPERTY":4346,"getApplication":4347,"(\"\");":4348,"options":4349,"schema":4350,"Bit":4351,"setVisible":4352,"ĠNullPointerException":4353,"feature":4354,"prop":4355,"ĠFunction":4356,"ĠComponent":4357,"FS":4358,"More":4359,"Ġæ":4360,"Idx":4361,"]\",":4362,"Ġexists":4363,"Sync":4364,"(\"[":4365,"respon":4366,"Assignment":4367,"rieve":4368,"BagConstraints":4369,"BT":4370,"Ġedit":4371,"Ġevt":4372,"Utilities":4373,"Ġholder":4374,"Ġcondition":4375,"Ġclazz":4376,"bytes":4377,"web":4378,"ĠRec":4379,"Flags":4380,"ĠFROM":4381,"FIX":4382,"Delay":4383,"ĠToken":4384,"Lookup":4385,"ĊĊĉĉĉĉ":4386,"Shared":4387,"ifferent":4388,"29":4389,"BE":4390,"ense":4391,"axis":4392,"SY":4393,"ĠError":4394,"Ġgrid":4395,"Library":4396,"ts":4397,"Init":4398,"dialog":4399,"ĠWh":4400,"getAbsolutePath":4401,"lat":4402,"Constructor":4403,"oft":4404,"exit":4405,"26":4406,"è®":4407,"Ġrepository":4408,"Ġgo":4409,"ĠOutput":4410,"ByteString":4411,"Generic":4412,"JSONObject":4413,"Send":4414,"eek":4415,"level":4416,"ĊĉĠĠĠĠĠĠĠ":4417,"Ġbundle":4418,"Master":4419,"Ġadapter":4420,"QUEST":4421,"success":4422,"uffix":4423,"ĠDEFAULT":4424,"anization":4425,"off":4426,"getObject":4427,"ActionListener":4428,"Upper":4429,"display":4430,"writer":4431,"ager":4432,"protocol":4433,"Blocks":4434,"just":4435,"ĠContent":4436,"OptionPane":4437,"Ġrole":4438,"MPTY":4439,"ĠInterruptedException":4440,"GRO":4441,"rowser":4442,"ĠInternal":4443,"Place":4444,"Should":4445,"nextInt":4446,"Direct":4447,"mm":4448,"Paths":4449,"Has":4450,"Ġ\\":4451,"Ġsent":4452,"aging":4453,"Ġcontrol":4454,"LIST":4455,"ĠCO":4456,"thrift":4457,"clus":4458,"allel":4459,"istic":4460,"35":4461,"Visitor":4462,"Total":4463,"parser":4464,"Activ":4465,"ah":4466,"Ġappend":4467,"setAttribute":4468,"ators":4469,"BY":4470,"WT":4471,"sign":4472,"rime":4473,"IZ":4474,"less":4475,"Ġvari":4476,"uplic":4477,"getSh":4478,"TERN":4479,"Alignment":4480,"ĠBundle":4481,"Ġ<<":4482,"ĠInvalid":4483,"ane":4484,"Ġreset":4485,"ĠObservable":4486,"ribution":4487,"vance":4488,"Ġpo":4489,"Ġfolder":4490,"alysis":4491,"ooser":4492,"ĠonChanged":4493,"36":4494,"road":4495,"Matcher":4496,"serial":4497,"Summary":4498,"nd":4499,"Ġexample":4500,"Users":4501,"Ġpackage":4502,"FER":4503,"Exist":4504,"ĠBigDecimal":4505,"Methods":4506,"VISIBLE":4507,"len":4508,"Ġart":4509,"egative":4510,"sv":4511,"author":4512,"Factor":4513,"tool":4514,"Ġperform":4515,"Ġ`":4516,"Ġfinish":4517,"ely":4518,"Attr":4519,"alt":4520,"Ġtool":4521,"CI":4522,"Sk":4523,"ĠProcess":4524,"beta":4525,"sd":4526,"ĠĠĠĠĠĠĠĠĠĠ":4527,"Ġwant":4528,"URCE":4529,"cover":4530,"Such":4531,"SERVICE":4532,"Tr":4533,"Ġsingle":4534,"Ġjust":4535,"ĠRandom":4536,"EST":4537,"style":4538,"ĠBase":4539,"namespace":4540,"yped":4541,"ĠAttribute":4542,"Det":4543,"Ġicon":4544,"Insert":4545,"COUNT":4546,"Program":4547,"Rot":4548,"21":4549,"vided":4550,"stall":4551,"ĠItemStack":4552,"requ":4553,"ĠextensionRegistry":4554,"holder":4555,"ĠfileName":4556,"ci":4557,"ND":4558,"dist":4559,"Ġsm":4560,"Ġraw":4561,"plied":4562,"eric":4563,"getRe":4564,"visit":4565,"Measure":4566,"(\".":4567,"LED":4568,"Ġunder":4569,"Ġrows":4570,"Ġhel":4571,"Orig":4572,"ometry":4573,"setContent":4574,"Shape":4575,"Serializer":4576,"Ġprop":4577,"ByName":4578,"cam":4579,"system":4580,"ĠMet":4581,"ServletResponse":4582,"ĠSec":4583,"riterion":4584,"Material":4585,"Sample":4586,"ummy":4587,"cell":4588,"ids":4589,"ĠMon":4590,"track":4591,"settings":4592,"common":4593,"anaged":4594,"ĠAuth":4595,"getMax":4596,"ĠEn":4597,"Ġword":4598,"Patient":4599,"Void":4600,"sk":4601,"Assign":4602,"Tx":4603,"udy":4604,"SA":4605,"ka":4606,"finish":4607,"compute":4608,"Ġextract":4609,"Ġchildren":4610,"EW":4611,"access":4612,"RuntimeException":4613,"eeded":4614,"AUT":4615,"example":4616,"DateFormat":4617,"':":4618,"(\"%":4619,"ĠIt":4620,"Ġjoin":4621,"ĠImmutableList":4622,"lap":4623,"Ġimport":4624,"Ġscope":4625,"ResultSet":4626,"getSource":4627,"AXB":4628,"ycler":4629,"CS":4630,"cond":4631,"Ġentries":4632,"ADD":4633,"Ġtimes":4634,"ted":4635,"Ġsup":4636,"head":4637,"Optional":4638,"HERE":4639,"man":4640,"Ġnetwork":4641,"mob":4642,"ness":4643,"Bucket":4644,"setId":4645,"Alert":4646,"sTo":4647,"44":4648,"Center":4649,"android":4650,"covery":4651,"Ġinvalid":4652,"GEN":4653,"Ġmapping":4654,"should":4655,"Ġcalls":4656,"Ġskip":4657,"Sw":4658,"Ð¸":4659,"ĠPrint":4660,"andidate":4661,"Schedule":4662,"Ġstmt":4663,"ĠBasic":4664,"Drawable":4665,"Effect":4666,"getField":4667,"ĠApplication":4668,"Dig":4669,"Services":4670,"answer":4671,")}":4672,"ĠSp":4673,"Arch":4674,"MODE":4675,"ĠName":4676,"import":4677,"https":4678,"ĠSearch":4679,"PORT":4680,"ãĢ":4681,"icator":4682,"Ġbatch":4683,"Ġheaders":4684,"SOURCE":4685,"orizont":4686,"Hint":4687,"IST":4688,"getLast":4689,"isDebug":4690,"parameter":4691,"notify":4692,"flush":4693,"ET":4694,"Ġweb":4695,"cancel":4696,"ĠMy":4697,"matcher":4698,"COLUMN":4699,"ble":4700,"Ġ\")":4701,"Amount":4702,"Ġtimeout":4703,"uring":4704,"Ġscript":4705,"Lines":4706,"div":4707,"ĠGL":4708,"Ġannotation":4709,"Marker":4710,"Len":4711,"Ġsim":4712,"Ġotherwise":4713,"Ġtransform":4714,"ReportField":4715,"38":4716,"ifest":4717,"Statistics":4718,"Ġusername":4719,"drawable":4720,"template":4721,"Buf":4722,"SD":4723,"Transport":4724,"ross":4725,"ulk":4726,"ONG":4727,"username":4728,"ĠJob":4729,"Shard":4730,")(":4731,"Wait":4732,"Ġ\"\\\"":4733,"Ġupdated":4734,"Ġevents":4735,"aj":4736,"rt":4737,"ping":4738,"EXT":4739,"cing":4740,"\">":4741,"setColor":4742,"addComponent":4743,"OD":4744,"Raw":4745,"SK":4746,"ĠStringUtils":4747,"LY":4748,"Ġbl":4749,"actual":4750,"Ġdelet":4751,"Compat":4752,"LayoutParams":4753,"Timer":4754,"erval":4755,"Ġendpoint":4756,"Ġmove":4757,"37":4758,"bd":4759,"ĠUpdate":4760,"Ġwhether":4761,"ĠByteBuffer":4762,"olved":4763,"ĠOr":4764,"getBoolean":4765,"Alias":4766,"Mask":4767,"mo":4768,"Ġsure":4769,"Ġ\"]":4770,"Variables":4771,"Ġpresent":4772,"SHORT":4773,"10000":4774,"ĠMockito":4775,"ĠEnum":4776,"Ġpanel":4777,"Than":4778,"sume":4779,"vc":4780,"ĠUtil":4781,"Ġå":4782,"ilities":4783,"Ġsnapshot":4784,"ĠMatch":4785,"Ġexpect":4786,"Ġgame":4787,"DataSource":4788,"Ġcomplet":4789,"crement":4790,"orizontal":4791,"VM":4792,"www":4793,"Ġemail":4794,"iagn":4795,"Ġscale":4796,"adow":4797,"Ġprimary":4798,"STATE":4799,"Ġstorage":4800,"ĠSession":4801,"Predicate":4802,"DEX":4803,"getUn":4804,"Ġanim":4805,"Chart":4806,"Runner":4807,"product":4808,"Ġcharacter":4809,"Available":4810,"CR":4811,"++){":4812,"CLASS":4813,"stanti":4814,"ĊĉĠ":4815,"ĠLine":4816,"Ġchanged":4817,"scriber":4818,"mi":4819,"oice":4820,"idx":4821,"Immutable":4822,"ten":4823,"Ġpaint":4824,"plugin":4825,"ĠGraph":4826,"Gap":4827,"bb":4828,"isNot":4829,"Rep":4830,"makeText":4831,"Diff":4832,"ÑĤ":4833,"28":4834,"Ġperson":4835,"bitField":4836,"email":4837,"ĠHT":4838,"Platform":4839,"LINE":4840,"ĠĊĉĉĉ":4841,"Ġps":4842,"getFirst":4843,"TRA":4844,"Route":4845,"reater":4846,"Ġchunk":4847,"Ġensure":4848,"Home":4849,"encies":4850,"_);":4851,"periment":4852,"Ġvalidation":4853,"IV":4854,"Side":4855,"Ġgr":4856,"clud":4857,"Ġmember":4858,"Head":4859,"SECONDS":4860,"æĺ":4861,"Year":4862,"EM":4863,"Ġplace":4864,"Evalu":4865,"mun":4866,"Delet":4867,"Ġcontaining":4868,"me":4869,"module":4870,"expression":4871,"ĠUI":4872,"onCreate":4873,"ĠMem":4874,"desc":4875,"Ġfilename":4876,"ĠtestGet":4877,"InterruptedException":4878,"Iss":4879,"ĠCalendar":4880,"tf":4881,"editor":4882,"Ġ\":":4883,"Distance":4884,"precated":4885,"Ġdestination":4886,"ORDER":4887,"ĠNotification":4888,"Ġignore":4889,"NING":4890,"wrap":4891,"RAY":4892,"getEntity":4893,"ierarch":4894,"Ġnamespace":4895,"assertFalse":4896,"swer":4897,"Ġwrit":4898,"Ċĉĉĉĉĉĉĉĉĉ":4899,"utom":4900,"lice":4901,"ToString":4902,"Ġcould":4903,"VALID":4904,"avigation":4905,"Av":4906,"CUR":4907,"marshall":4908,"Ġcmd":4909,"(\"-":4910,"Ġcons":4911,"strument":4912,"aces":4913,"Ġhigh":4914,"acters":4915,"Ġedge":4916,"STATUS":4917,"push":4918,"NONE":4919,"Atom":4920,"SQLException":4921,"etter":4922,"rict":4923,"Ġsupport":4924,"Preferred":4925,"Ġenv":4926,"ĠFloat":4927,"Ġerrors":4928,"ĠNot":4929,"getG":4930,"getBlock":4931,"RES":4932,"ridge":4933,"Compound":4934,"Ġ\";":4935,"Any":4936,"ç»":4937,"Ġmethods":4938,"icker":4939,"ĠTag":4940,"Env":4941,"CONTENT":4942,"Native":4943,"fire":4944,"forEach":4945,"Tracker":4946,"Bo":4947,"Press":4948,"Ġbar":4949,"aptor":4950,"Direction":4951,"getSimple":4952,"Upload":4953,"ENTER":4954,"cr":4955,"Stage":4956,"execut":4957,"DataType":4958,"ĠColumn":4959,"setOnClickListener":4960,"icipant":4961,"ls":4962,"ires":4963,"ä½":4964,"acy":4965,"Extract":4966,"Ġ),":4967,"Listeners":4968,"Could":4969,"ptim":4970,"eger":4971,"Ġbind":4972,"Graphics":4973,"isSet":4974,"Ġbetween":4975,"Sheet":4976,"Ui":4977,"Video":4978,"HttpServletRequest":4979,"endsWith":4980,"Ġremoved":4981,"Ġconstraint":4982,"putExtra":4983,"Ġclone":4984,"singleton":4985,"04":4986,"Ġsince":4987,"ĠWork":4988,"amples":4989,"isDebugEnabled":4990,"Ġtr":4991,"Algorithm":4992,"Ġflag":4993,"opulate":4994,"wr":4995,"Ġ15":4996,"NS":4997,"Question":4998,"Transition":4999,"ĠArg":5000,"setString":5001,"Ġinclude":5002,"Month":5003,"Mov":5004,"getMethod":5005,"START":5006,"Associ":5007,"Marshaller":5008,"Ġnotification":5009,"Ġmouse":5010,"ead":5011,"enable":5012,"ither":5013,"umb":5014,"ĠPage":5015,"Delegate":5016,"Features":5017,"ĠassertNull":5018,"LICATION":5019,"CREATE":5020,"Dat":5021,"High":5022,"Inject":5023,"Ġvm":5024,"SSION":5025,"ĠXml":5026,"Ġauthor":5027,"Price":5028,"role":5029,"EMPTY":5030,"Ġprofile":5031,"Blank":5032,"idden":5033,"setTitle":5034,"roadcast":5035,"direct":5036,"patcher":5037,"range":5038,"POS":5039,"Ġsequence":5040,"flate":5041,"Missing":5042,"Ġ(((":5043,"åĽ":5044,"getSession":5045,"mer":5046,"clu":5047,"Tokens":5048,"ĠLinkedList":5049,"RENT":5050,"ĠsetUp":5051,"Ġamount":5052,"Me":5053,"oad":5054,"urface":5055,"CHAN":5056,"čĊĠĠĠĠĠĠĠĠčĊĠĠĠĠĠĠĠ":5057,"SL":5058,"meta":5059,"encode":5060,"expect":5061,"ublisher":5062,"Site":5063,"la":5064,"ernal":5065,"Ġbucket":5066,"Execute":5067,"Ġla":5068,"Ġresources":5069,"FIG":5070,"pm":5071,"Ġsample":5072,"Ġdepend":5073,"čĊčĊĠĠĠ":5074,"ĊĠĠĠĠĠĠĠĠĠĠĠĠĉ":5075,"Series":5076,"rece":5077,"ĠAtom":5078,"Ġ|=":5079,"ĠBitmap":5080,"Codec":5081,"ĠNO":5082,"items":5083,"77":5084,"Pass":5085,"getLong":5086,"Ġsupported":5087,"tc":5088,"Ġpool":5089,"Ġ\"\"":5090,"thread":5091,"ĠGets":5092,"Permissions":5093,"Ġlat":5094,"Ġmessages":5095,"Viewer":5096,"GB":5097,"self":5098,"separator":5099,"Basic":5100,"ĊĊĊĠĠĠĠĠĠĠ":5101,"stmt":5102,"getResources":5103,"eq":5104,"ench":5105,"Ġcomment":5106,"Bind":5107,"Lat":5108,"limit":5109,"Texture":5110,"png":5111,"POST":5112,"Rules":5113,"Watch":5114,"ural":5115,"pawn":5116,"paredStatement":5117,"CAL":5118,"Strings":5119,"rel":5120,"Ġfuture":5121,"Ġresolve":5122,"resources":5123,"LOCK":5124,"alyzer":5125,"Ã©":5126,"Ġthem":5127,"Ġprime":5128,"ĠTimeUnit":5129,"section":5130,"DataSet":5131,"lipse":5132,"BUG":5133,"Sim":5134,"ĠRect":5135,"æĹ":5136,"kit":5137,"FE":5138,"ube":5139,"Tasks":5140,"dl":5141,"eh":5142,"(\"{":5143,"iki":5144,"GHT":5145,"Ġplay":5146,"Ġdoesn":5147,"cap":5148,"ĠConstants":5149,"Ġnormal":5150,"ĠJAXB":5151,"Ġmatches":5152,"ĠExpression":5153,"allow":5154,"Inflater":5155,"ĠTim":5156,"ĠHand":5157,"Annotations":5158,"ism":5159,"EV":5160,"Public":5161,"äº":5162,"æį":5163,"Ġsee":5164,"Ġsw":5165,"parameters":5166,"Sm":5167,"Receiver":5168,"Family":5169,"stit":5170,"Ġequal":5171,"ffic":5172,"getSimpleName":5173,"Ġpair":5174,"lib":5175,"LETE":5176,"Ġrefresh":5177,"handler":5178,"savedInstanceState":5179,"Ġprovided":5180,"prefix":5181,"kg":5182,"Ġcurr":5183,"ĠBy":5184,"ĠFilter":5185,"login":5186,"weight":5187,"ne":5188,"Ġvector":5189,"usiness":5190,"Ġcontain":5191,"AV":5192,"getRoot":5193,"Formatter":5194,"IR":5195,"urs":5196,"Sl":5197,"alance":5198,"Ġ{\"":5199,"INDEX":5200,"ARY":5201,"yclerView":5202,"ĠST":5203,"ByteBuffer":5204,"Ġdriver":5205,"Ġlocale":5206,"Records":5207,"IllegalArgumentException":5208,"setType":5209,"ĠĊĠĠ":5210,"onical":5211,"results":5212,"Running":5213,"ognition":5214,"aug":5215,"Ġcounter":5216,"IND":5217,"metadata":5218,"Ġproxy":5219,"ifiable":5220,"96":5221,"game":5222,"Ġloop":5223,"voice":5224,"Ġtopic":5225,"func":5226,"getRequest":5227,"ĠCache":5228,"Ġbeing":5229,"ChangeListener":5230,"CLI":5231,"getState":5232,"cvp":5233,"98":5234,"tip":5235,"Ð½":5236,"Certificate":5237,"env":5238,"package":5239,"otype":5240,"Modifier":5241,"inical":5242,"Fix":5243,"getStart":5244,"--;":5245,"ordinates":5246,"Ġassociated":5247,"ĊĊĠĠĠĠĠĠĠĠĠ":5248,"Instances":5249,"Ġge":5250,"refresh":5251,"Vert":5252,"Pixel":5253,"manager":5254,"Disk":5255,"Dataset":5256,"Hex":5257,"Ġflow":5258,"Ġrequire":5259,"ifications":5260,"lv":5261,"EP":5262,"Ġ^":5263,"Ġdescriptor":5264,"attr":5265,"ĠUtils":5266,"Ġfont":5267,"ribe":5268,"ĉĉĉĉĉ":5269,"WAR":5270,"cmd":5271,"medi":5272,"Ġclean":5273,"Ġallowed":5274,"Comparison":5275,"ĊĠĠĠĠĠĠĠĠĠĠĠĠĠĠĠĠĠĠĠĠĠĠĠĠĠĠĠĠĠĠĠĠĠĠĠĠĠĠĠĠĠĠĠĠĠĠĠĠĠĠĠĠĠĠĠĠĠĠĠĠĠĠĠĠĠĠĠĠĠĠĠĠ":5276,"1111":5277,":\");":5278,"aven":5279,"ĠFr":5280,"ANT":5281,"ighb":5282,"ives":5283,"come":5284,"aml":5285,"Ġconsumer":5286,"Cor":5287,"Popup":5288,"è¡":5289,"ĠĊĠĠĠĠĠĠĠĠ":5290,"ĠĊĠĠĠĠĠĠĠ":5291,"ĠRest":5292,"Partial":5293,"Ġattr":5294,"Jar":5295,"BufferException":5296,"Delta":5297,"Encoder":5298,"Anch":5299,"Attem":5300,"Clause":5301,"When":5302,"itter":5303,"Ġcommit":5304,"newBuilder":5305,"Unable":5306,"fe":5307,"riction":5308,"ClassLoader":5309,"CHAR":5310,"SPA":5311,"FactoryImpl":5312,"OW":5313,"atio":5314,"require":5315,"ĠLogger":5316,"Ġ\"[":5317,"ircle":5318,"respond":5319,"Ġdirect":5320,"persist":5321,"getLogger":5322,"paces":5323,"Subscription":5324,"cluded":5325,"Catalog":5326,"ĠCustom":5327,"mode":5328,"region":5329,"Validate":5330,"dat":5331,"font":5332,"grade":5333,"})":5334,"Ġbased":5335,"TreeNode":5336,"PRI":5337,"UST":5338,"getTable":5339,"izes":5340,"čĊĉĠĠĠ":5341,"ĠComp":5342,"Supported":5343,"čĊĉĉĉĉĉĉĉ":5344,"Ġinner":5345,"Operations":5346,"Stroke":5347,"Ġfill":5348,"appings":5349,"Ġ...":5350,"ĠOperation":5351,"Ġgenerated":5352,"çĶ¨":5353,"Ġacc":5354,"45":5355,"Ġcategory":5356,"atic":5357,"avor":5358,"ĠĠĠĠĠĠĠĠĠĠĠĠĠĠĠĠĠĠĠ":5359,"Ġparsed":5360,"Lite":5361,"Received":5362,"ĠBufferedReader":5363,"dr":5364,"iber":5365,"argin":5366,"1234":5367,"ListView":5368,"ĠRead":5369,"Ġattrs":5370,"VIEW":5371,"\\\":\\\"":5372,"member":5373,"IF":5374,"}\",":5375,"Ġdelta":5376,"posed":5377,"Ġscreen":5378,"Ġpoints":5379,"ProtocolBufferException":5380,"Ġpassed":5381,"Car":5382,"ĠBe":5383,"conditions":5384,"Normal":5385,"jar":5386,"Ġowner":5387,"ĠServlet":5388,"Ġcontact":5389,"uments":5390,"Ġidentifier":5391,"ĊĠĠĠĠĠĠĠĠĠĠĠĠĠĠĠĠĠĠĠĠĠĠĠĠĠĠĠĠĠĠĠĠĠĠĠĠĠĠĠĠĠĠĠĠĠĠĠ":5392,"ose":5393,"Stub":5394,"semb":5395,"Chooser":5396,"readLine":5397,"Ġtimestamp":5398,"device":5399,"Ġ200":5400,"Subject":5401,"Ġdifferent":5402,"ĠTra":5403,"Capacity":5404,"oles":5405,"ĠDatabase":5406,"replaceAll":5407,"Ġagain":5408,"ĠgetString":5409,"ird":5410,"03":5411,"exec":5412,"Export":5413,"Ġstub":5414,"calar":5415,"Scan":5416,"ĠAND":5417,"Ġdecl":5418,"Transfer":5419,"Drop":5420,"ELE":5421,"Fault":5422,"database":5423,"factory":5424,"Generated":5425,"Customer":5426,"ĠState":5427,"setBackground":5428,"Ġinvoke":5429,"ĠNOT":5430,"Room":5431,"Ġsk":5432,"Ġvo":5433,"Ġidx":5434,"ĠParameter":5435,"CONFIG":5436,"TRAN":5437,"InvalidProtocolBufferException":5438,"ĠAtomic":5439,"48":5440,"abilities":5441,"Created":5442,"script":5443,"Final":5444,"Ġfetch":5445,"CM":5446,"second":5447,"losing":5448,"Ġnotify":5449,"Html":5450,"WE":5451,"Ġreal":5452,"Sender":5453,"Relative":5454,"Virtual":5455,"ĠPattern":5456,"ATTRI":5457,"pol":5458,"ese":5459,"Ġdefinition":5460,"Tip":5461,"lr":5462,"normal":5463,"getProject":5464,"Ġhref":5465,"PR":5466,"ÑĢ":5467,"Props":5468,"Ġcam":5469,"INFO":5470,"Answer":5471,"Management":5472,"ture":5473,"ivid":5474,"where":5475,"APPLICATION":5476,"Started":5477,"Coord":5478,"marshaller":5479,"Ident":5480,"ĠGame":5481,"Accessor":5482,"åıĸ":5483,"¾ç":5484,"Ġcompute":5485,"ĠHe":5486,"Span":5487,"enario":5488,"ĠTerm":5489,"IFI":5490,"apture":5491,"lookup":5492,"ĠSerial":5493,"\")),":5494,"sendMessage":5495,"Mutable":5496,"raction":5497,"Worker":5498,"original":5499,"Primary":5500,"Invocation":5501,"lict":5502,"Separator":5503,"ula":5504,"Ġlines":5505,"Tests":5506,"Tools":5507,"dx":5508,"ĠPAR":5509,"faces":5510,"REQUEST":5511,"ategories":5512,"éĢ":5513,"img":5514,"ĠDo":5515,"ai":5516,"zip":5517,"coming":5518,"CheckBox":5519,"Payload":5520,"dec":5521,"addActionListener":5522,"Ġalso":5523,"Fore":5524,"ĠJOptionPane":5525,"Accept":5526,"servlet":5527,"getConnection":5528,"MAP":5529,"ĠĊĠĠĠĠĠĠĠĠĠĠĠ":5530,"way":5531,"Ġident":5532,"ĠUUID":5533,"gments":5534,"ĠDialog":5535,"ĠGe":5536,"EditText":5537,"Download":5538,"ĠUnsupported":5539,"pattern":5540,"ĠPack":5541,"Ġdel":5542,"pology":5543,"cedure":5544,"Go":5545,"isValid":5546,"Ġour":5547,"Composite":5548,"ĠRel":5549,"complete":5550,"Members":5551,"Ġthrough":5552,"ilation":5553,"Ġcontroller":5554,"(\",\");":5555,"Connected":5556,"ULE":5557,"Addr":5558,"failed":5559,"Instruction":5560,"Toast":5561,"Contents":5562,"FilePath":5563,"ĠLe":5564,"Locator":5565,"incre":5566,"Pending":5567,"Primitive":5568,"Ġ11":5569,"Labels":5570,"Ġabout":5571,"paint":5572,"OnClickListener":5573,"Ġlogin":5574,"DAY":5575,"car":5576,"ral":5577,"Ġrout":5578,"Ms":5579,"exist":5580,"umul":5581,"Ġrep":5582,"question":5583,"Tri":5584,"ocity":5585,"uilt":5586,"PARAM":5587,"Ġmapper":5588,"ĠDec":5589,"Ġrad":5590,"aged":5591,"ĠMain":5592,"Updated":5593,"Alpha":5594,"Ġenabled":5595,"BUTE":5596,"NULL":5597,"fully":5598,"dt":5599,"isNull":5600,"Ġthey":5601,"ĠCode":5602,"Percent":5603,"ĠUse":5604,"Supplier":5605,"Ġ\"/\"":5606,"Suite":5607,"ä¿":5608,"alf":5609,"Ġtags":5610,"(\"\",":5611,"Exchange":5612,"Ġexchange":5613,"continue":5614,"ĠclassName":5615,"GROUP":5616,"Cannot":5617,"Machine":5618,"nate":5619,"peated":5620,"Ġdst":5621,"Peer":5622,"getNext":5623,"Ġpush":5624,"Ġman":5625,"imiter":5626,"ĊĉĉĉĠĠ":5627,"Ġplan":5628,"IAL":5629,"pu":5630,"Touch":5631,"Net":5632,"sample":5633,"since":5634,"wt":5635,"decode":5636,"Ġip":5637,"Ġexecutor":5638,"getTarget":5639,"ibernate":5640,"Finder":5641,"Switch":5642,"WA":5643,"Inventory":5644,"setLayout":5645,"Ġstats":5646,"]));":5647,"dom":5648,"Ġdefined":5649,"dc":5650,"ierarchy":5651,"Launch":5652,"Ġ30":5653,"Ġcancel":5654,"Contract":5655,"ENCE":5656,"/{":5657,"found":5658,"ĠBorder":5659,"iagnost":5660,"iece":5661,"localhost":5662,"Loading":5663,"requency":5664,"scan":5665,"sList":5666,"Ġ})":5667,"Ġiss":5668,"Without":5669,"HashSet":5670,"Allowed":5671,"ggle":5672,"StringBuilder":5673,"ĊĠĠĠĠĠĠĠĠĠĠĠĠĠĠĠĠĠĠĠĠĠĠĠĠĠ":5674,"ONT":5675,"getColor":5676,"Infos":5677,"PL":5678,"ĠčĊĠĠĠĠ":5679,"Ġengine":5680,"getResult":5681,"getAction":5682,"Ġsimple":5683,"ooth":5684,"nextToken":5685,"Break":5686,"Ġunique":5687,"ĠresourceGroupName":5688,"NODE":5689,"Loop":5690,"Ġtile":5691,"Ġspace":5692,"transform":5693,"GR":5694,"QName":5695,"network":5696,"ĊĊĠĠĠĠĠĠĠĠĠĠĠĠĠĠĠĠĠĠĠĠĠĠĠĠĠĠĠ":5697,"Repo":5698,"[]>":5699,"rivile":5700,"08":5701,"person":5702,"getElement":5703,"Ctx":5704,"ĊĠĠĠĠĉĉ":5705,"()+\"":5706,"ĠAS":5707,"Ġ-=":5708,"DESC":5709,"Ġyour":5710,"ĠDelete":5711,"uplicate":5712,"/\"":5713,"Two":5714,"isPresent":5715,"Ġexpr":5716,"Ġloader":5717,"ĠWHERE":5718,"05":5719,"Credentials":5720,"It":5721,"Pipeline":5722,"Ġanswer":5723,"enum":5724,"Exit":5725,"ItemStack":5726,"Added":5727,"Ġsegment":5728,"Ġrepresentation":5729,"Ġqual":5730,"000000":5731,"Buffered":5732,"Ġscan":5733,"Variant":5734,"Completion":5735,"FLAG":5736,"å¼":5737,"ĠNote":5738,"olr":5739,"ĠAm":5740,"Ġlike":5741,"DEBUG":5742,"Ġwithout":5743,"Ġinterface":5744,"PREFIX":5745,"LONG":5746,"Example":5747,"setState":5748,"ĠLabel":5749,"Ġprev":5750,"Fetch":5751,"panel":5752,"ĠStatus":5753,"getService":5754,"rows":5755,"Ġfailure":5756,"DD":5757,"cd":5758,"rees":5759,"ĠPart":5760,"27":5761,"tv":5762,"åº":5763,"getModel":5764,"amage":5765,"Leg":5766,"97":5767,"ience":5768,"ĠExecution":5769,"getLocation":5770,"ota":5771,"ĠShort":5772,"ATTRIBUTE":5773,"Problem":5774,"ĠSchema":5775,"Processing":5776,"HEAD":5777,"Collectors":5778,"Trigger":5779,"loader":5780,"Ġdebug":5781,"AccessException":5782,"Ġsite":5783,"Ġday":5784,"Ġlookup":5785,"Ġenum":5786,"####":5787,"Closed":5788,"ele":5789,"getRow":5790,"control":5791,"Ġwithin":5792,"locate":5793,"UPDATE":5794,"Syntax":5795,"ognitionException":5796,"95":5797,"getSt":5798,"rot":5799,"Ġfs":5800,"Producer":5801,"aws":5802,"getIndex":5803,"ĠButton":5804,"Ġsubject":5805,"Registration":5806,"fragment":5807,"KEN":5808,"ually":5809,"States":5810,"Ġadmin":5811,"Codes":5812,"mine":5813,"release":5814,"())).":5815,"Ġexit":5816,"ĠQu":5817,"Stmt":5818,"å¯":5819,"ĠgetValue":5820,"FormatException":5821,"Light":5822,"variable":5823,"Sets":5824,"loaded":5825,"RequestMapping":5826,"Ġannot":5827,"Ġalias":5828,"OperationException":5829,"Creation":5830,"Ġfollowing":5831,"eration":5832,"Ġdet":5833,"activ":5834,"Ġsetting":5835,"ĠRef":5836,"getMin":5837,"OPTION":5838,"Ñģ":5839,"Ġcard":5840,"Ġfix":5841,"setSelected":5842,"Ġcomplete":5843,"antity":5844,"NumberOf":5845,"Sent":5846,"batch":5847,"ĠĠĠĠĠĠĠĠĠĠĠĠĠ":5848,"Ġpossible":5849,"ĠTransaction":5850,"Bits":5851,"USE":5852,"setMax":5853,"rav":5854,"provider":5855,"points":5856,"ĠdefaultValue":5857,"Structure":5858,"Dependency":5859,"čĊĠĠĠĠĠĠĠĠĠĠĠĠĠĠĠĠĠĠĠĠĠĠĠĠĠĠĠĠĠĠĠ":5860,"Ġpersist":5861,"ours":5862,"CENTER":5863,"Ġconfigure":5864,"EC":5865,"onym":5866,"getConfiguration":5867,"Ġdetails":5868,"iagram":5869,"Latch":5870,"Put":5871,"pi":5872,"Ġrunning":5873,"Runnable":5874,"Ġmsgs":5875,"Concept":5876,"progress":5877,"Begin":5878,"afka":5879,"SPACE":5880,"opt":5881,"ipient":5882,"Ġanother":5883,"score":5884,"GRE":5885,"getComponent":5886,"Ġsocket":5887,"omb":5888,"ands":5889,"azy":5890,"Ġmonitor":5891,"Ne":5892,"cf":5893,"non":5894,"Ġsl":5895,"ometh":5896,"Ġos":5897,"Username":5898,"clazz":5899,"Ġenvironment":5900,"click":5901,"getAs":5902,"getLength":5903,"Ġver":5904,"extract":5905,"ĠCount":5906,"ĠOpen":5907,"Ġrot":5908,"Volume":5909,"(\"\\\\":5910,"Ġbr":5911,"ryption":5912,"Parallel":5913,"Secret":5914,"omething":5915,"OS":5916,"screen":5917,"BASE":5918,"čĊčĊĉĉĉ":5919,"ongo":5920,"Ġ50":5921,"ĠLocale":5922,";\\":5923,"Cloud":5924,"getVersion":5925,"ComboBox":5926,"schedule":5927,"Ġerr":5928,"Ġdataset":5929,"ĠDimension":5930,"arning":5931,"MSG":5932,"security":5933,"alk":5934,"Ġclick":5935,"ĠPlayer":5936,"Branch":5937,"Dynamic":5938,"Ġhead":5939,"getDescription":5940,"ĊĠĠĠĠĠĠĠĠĠĠĠĠĠĠĠĠĠĠ":5941,"ĠMedia":5942,"LOGGER":5943,"initialize":5944,"Finished":5945,"Arr":5946,"TL":5947,"bum":5948,"123":5949,"ĠCluster":5950,"Find":5951,"uario":5952,"čĊĠĠĠĠĠĠĠĠĠĠĠĠ":5953,"Ġcriteria":5954,"Times":5955,"ĠDateTime":5956,"ba":5957,"()];":5958,"ĊĠĠĠĠĠĠĠĠĠĠĠĠĠĠĠĠĠĠĠĠĠĠ":5959,"ĠnewValue":5960,"Reason":5961,"ĠUri":5962,"partition":5963,"ĠFI":5964,"Ġmemory":5965,"Ġsignature":5966,"skip":5967,"edis":5968,"Ġlook":5969,"comment":5970,"ServiceResponse":5971,".\"":5972,"uk":5973,"essment":5974,"Ġmatching":5975,"Ġ[\"":5976,"rient":5977,"collection":5978,"AA":5979,"nodes":5980,"Ġet":5981,"ĠForm":5982,"Require":5983,"Ġdelegate":5984,"ĠĠĠĠĠĠĠĠĠĠĠĠĠĠĠĠĠĠĠĠĠĠĠ":5985,"curr":5986,"Expect":5987,"ĠgetClass":5988,"HTTP":5989,"inflate":5990,"FORM":5991,"Done":5992,"HA":5993,"XX":5994,"ital":5995,"ĠAccess":5996,"ITH":5997,"AUTH":5998,"hip":5999,"ĠInitial":6000,"Health":6001,"Ġencoding":6002,"ä»¶":6003,"Rotation":6004,"operation":6005,"Ġduring":6006,"ĠAg":6007,"econd":6008,"ĠPer":6009,"Help":6010,"CONNE":6011,"Ġdistance":6012,"Other":6013,"ĠStart":6014,"Ġcanvas":6015,"Bottom":6016,"Cmd":6017,"alan":6018,"Ġ\"{":6019,"odo":6020,"llapi":6021,"Ġchanges":6022,"Recipe":6023,"UMENT":6024,"CCESS":6025,"Ġ{\\":6026,"COM":6027,"Ġzero":6028,"UpperCase":6029,"CTED":6030,"jb":6031,"reference":6032,"Deployment":6033,"ĠRemote":6034,"fetch":6035,"gether":6036,"Sensor":6037,"Ġalways":6038,"Ġreceived":6039,"day":6040,"ras":6041,"ĠCo":6042,"contact":6043,"COMM":6044,"Cast":6045,"Medi":6046,"Pres":6047,"ca":6048,"miss":6049,"rout":6050,"Ġpayload":6051,"Inv":6052,"Ġmedia":6053,"Revision":6054,"Ġusers":6055,"Phase":6056,"Replace":6057,"posal":6058,"Ġmatcher":6059,"topic":6060,"esh":6061,"Ġprepare":6062,"Units":6063,"Creator":6064,"æĸĩ":6065,"Mut":6066,"evt":6067,"Views":6068,"ĠVersion":6069,"that":6070,"ĠSource":6071,"ViewHolder":6072,"čĊĉĉĉčĊĉĉ":6073,"Retry":6074,"rase":6075,"getChildren":6076,"setMessage":6077,"plan":6078,"submit":6079,"TRUE":6080,"Ġinstead":6081,"Ġcb":6082,"setDefault":6083,"ival":6084,"Forward":6085,"Ġtokens":6086,"Completed":6087,"Ġcause":6088,"(\"_":6089,"owner":6090,"Ġpacket":6091,"Ġbounds":6092,"Criterion":6093,"ĠRes":6094,"Standard":6095,"ActionPerformed":6096,"ä¸º":6097,"ĠLocation":6098,"Ġignored":6099,"urch":6100,"doubleValue":6101,"ĠAnd":6102,"Gu":6103,"Gateway":6104,"VAR":6105,"js":6106,"scale":6107,"nowled":6108,"********************************":6109,"42":6110,"Payment":6111,"åľ":6112,"Ġvertex":6113,"Ġmulti":6114,"Ġevery":6115,"ĠApi":6116,"NUMBER":6117,"Audio":6118,"agent":6119,"Req":6120,"plies":6121,"ĠIO":6122,"HTML":6123,"=(":6124,"Mail":6125,"Ġest":6126,"ano":6127,"Ġsection":6128,"adapter":6129,"())));":6130,"available":6131,"Ġimplementation":6132,"category":6133,"profile":6134,"CC":6135,"Ġbox":6136,"INTER":6137,"ALSE":6138,"Scanner":6139,"Ġ31":6140,"Ġvariables":6141,"GONE":6142,"SPE":6143,"lide":6144,"pressed":6145,"services":6146,"getTag":6147,"Ġsync":6148,"ĠPh":6149,"Ġgl":6150,"Ġclasses":6151,"Ġmaximum":6152,"Linked":6153,"Ġmultiple":6154,"Unique":6155,"attributes":6156,"signed":6157,"peat":6158,"ĠCommon":6159,"æĺ¯":6160,"mk":6161,"ĠgetS":6162,"Checker":6163,"ĠtableName":6164,"children":6165,"compile":6166,"Ġdeter":6167,"ĠAccount":6168,"ensitive":6169,"gu":6170,"Ġsender":6171,"prite":6172,"Ġ32":6173,"Ġaggreg":6174,"Big":6175,"aim":6176,"Ġslot":6177,"emon":6178,"Ġrect":6179,"Hist":6180,"wd":6181,"ceed":6182,"quare":6183,"rypted":6184,"getSize":6185,"Ġruntime":6186,"Filters":6187,"æį®":6188,"pn":6189,"toList":6190,"ARRAY":6191,"...\");":6192,"pg":6193,"getDocument":6194,"adoop":6195,"imate":6196,"Visibility":6197,"Real":6198,"Ġgen":6199,"Transformer":6200,"Ġboth":6201,"06":6202,"Multiple":6203,"ale":6204,"Ġregistry":6205,"Utility":6206,"Ġ){":6207,"Ġids":6208,"increment":6209,"EObject":6210,"Fill":6211,"Conversion":6212,"ImageView":6213,"SERVER":6214,"--------------------------------":6215,"Ġnever":6216,"MIL":6217,"correct":6218,"}\");":6219,"ĠĠĠĠĉ":6220,"ication":6221,"Ġproblem":6222,"LIC":6223,"Ġfails":6224,"Pressed":6225,"Cost":6226,"Follow":6227,"Ok":6228,"]\");":6229,"cm":6230,"pop":6231,"getCount":6232,"Ġrelation":6233,"readInt":6234,"ysical":6235,"ĠGridBagConstraints":6236,"keys":6237,"ĠFl":6238,"edge":6239,"timeout":6240,"erialize":6241,"clusive":6242,"BigDecimal":6243,"storage":6244,"Ġds":6245,"LEFT":6246,"ĠJPanel":6247,"Ġchecked":6248,"Ð¾Ð":6249,"Writable":6250,"reat":6251,"Ġcar":6252,"Produ":6253,"docs":6254,"cb":6255,"sent":6256,"Ġbook":6257,"ecess":6258,"ĠDO":6259,"RESULT":6260,"Ġinstances":6261,"001":6262,"Ġhapp":6263,"Indicator":6264,"COLOR":6265,"waitFor":6266,"54":6267,"Used":6268,"ambd":6269,"Ġdig":6270,"Ġaxis":6271,"jected":6272,"Ġprogram":6273,"Seq":6274,"acion":6275,"Qualified":6276,"PK":6277,"Zero":6278,"mContext":6279,"ARD":6280,"ĠuserId":6281,"Iterable":6282,"Ġstored":6283,"ĠVAL":6284,"Ġmetrics":6285,"æł":6286,"Ġinflater":6287,"ĠNULL":6288,"Ġ__":6289,"Ġasync":6290,"SUB":6291,"folder":6292,"Ġtrigger":6293,"ingleton":6294,"SEVER":6295,"ĠMono":6296,"Old":6297,"lex":6298,"Under":6299,"Ġretval":6300,"emptyList":6301,"Ġlanguage":6302,"Implement":6303,"Ġspecific":6304,"Ġnet":6305,"Ġtogether":6306,"Ġshared":6307,"Ġkeep":6308,"Ġ60":6309,"9999":6310,"Ġpolicy":6311,"lers":6312,"mail":6313,"ĠStandard":6314,"force":6315,"perform":6316,"props":6317,"beans":6318,"Gui":6319,"aus":6320,"elocity":6321,"oose":6322,"Parcel":6323,"Ġcalculate":6324,"BR":6325,"Scheduler":6326,"plates":6327,"Ġexport":6328,"Ġandroid":6329,"Indices":6330,"ĠNoSuch":6331,"Fixed":6332,"Named":6333,"Ġwould":6334,"setStatus":6335,"ĠEX":6336,"ributed":6337,"TOKEN":6338,"Ġscore":6339,"OBJECT":6340,"ĊĠĠĠĠĠĠĠĠĉ":6341,"Ġneeded":6342,"Threshold":6343,"Attachment":6344,"Ġenable":6345,"Ġav":6346,"ĠIterable":6347,"loor":6348,"Ġbtn":6349,"ATED":6350,"Ġsecurity":6351,"Ġ[]":6352,"atar":6353,"Ġcontents":6354,"Seconds":6355,"500":6356,"iol":6357,"Âµ":6358,"Ġfe":6359,"Ġduration":6360,"Ġmissing":6361,"Ġdimension":6362,"impl":6363,"Ġinterval":6364,"Ġglobal":6365,"Ġbinding":6366,"ĠPair":6367,"Week":6368,"required":6369,"ĠSql":6370,"Destination":6371,"Ġside":6372,"erru":6373,"LOAD":6374,"googleads":6375,"OL":6376,"vide":6377,"ĠTEST":6378,"ĠFileOutputStream":6379,"Priority":6380,"tle":6381,"Throws":6382,"ambda":6383,"ulation":6384,"Ġsorted":6385,"translate":6386,"olyg":6387,"Filename":6388,"å½":6389,"ĠRecord":6390,"enabled":6391,"(\"#":6392,"ĠMulti":6393,"Ġ..":6394,"ITER":6395,"ĠChannel":6396,"MON":6397,"Merge":6398,"ros":6399,"(\"\"))":6400,"Ġreason":6401,"ĠMenu":6402,"Ġyet":6403,"Extended":6404,"PROP":6405,"Based":6406,"uit":6407,"Ġ();":6408,"Ġ\"(":6409,"Ġshard":6410,"FIR":6411,"31":6412,"BL":6413,"driver":6414,"Updates":6415,"Ġrequested":6416,"Ġmetric":6417,"PREFER":6418,"getSubterm":6419,"getHost":6420,"plain":6421,"FileSystem":6422,"ĠLayout":6423,"Sequ":6424,"DisplayName":6425,"Archive":6426,"fileName":6427,"TOP":6428,"ä¸Ģ":6429,"Src":6430,"WORD":6431,"aving":6432,"Ġconstant":6433,"words":6434,"ä¸į":6435,"Mult":6436,"Ġbasic":6437,"Ġresp":6438,"ffff":6439,"Ġoptional":6440,"transaction":6441,"multi":6442,"usic":6443,"Theme":6444,"getSystem":6445,"Authorization":6446,"MAN":6447,"WH":6448,"getConfig":6449,"getCode":6450,"LES":6451,"SIG":6452,"ĠHTTP":6453,"after":6454,"gy":6455,"½®":6456,"Analysis":6457,"tp":6458,"Console":6459,"BACK":6460,"ĠWorld":6461,"Ġexceptions":6462,"Ġoperator":6463,"uuid":6464,"Ġbottom":6465,"simple":6466,"strap":6467,"Ġfire":6468,"Ġfac":6469,"Ġauto":6470,"Prom":6471,"ĊĠĠĠĠĠĠĠĠĠĠĠĠĠĠĠĠĠĠĠĠĠĠĠĠĠĠĠĠ":6472,"oss":6473,"Ġscroll":6474,"ployee":6475,"Phone":6476,"FORMAT":6477,"Ġschedule":6478,"Ġeither":6479,"Interceptor":6480,"callback":6481,"UD":6482,"ough":6483,"ĠJLabel":6484,"TERNAL":6485,"Lif":6486,"center":6487,"some":6488,"decl":6489,"ĠCriteria":6490,"TypeName":6491,"Enable":6492,"allet":6493,"ogram":6494,"aker":6495,"shard":6496,"lying":6497,"ASK":6498,"QUAL":6499,"Business":6500,"ĠRectangle":6501,"CLO":6502,"window":6503,"getNum":6504,"(\"$":6505,"ĠByteArrayOutputStream":6506,"ĠSecurity":6507,"ãĢĤ":6508,"ĠRow":6509,"UserId":6510,"eeper":6511,"Ġattem":6512,"Ġparts":6513,"Ġmodified":6514,"getApplicationContext":6515,"sq":6516,"Ġ18":6517,"Entities":6518,"Ġadditional":6519,"Ġarea":6520,"Ġretrieve":6521,"Workflow":6522,"Est":6523,"TS":6524,"bc":6525,"Ġwrapped":6526,"Private":6527,"rive":6528,"ĠActivity":6529,"Ġinteger":6530,"Workspace":6531,"æī":6532,"getClient":6533,"licit":6534,"Ġstill":6535,"Ġuntil":6536,"DOWN":6537,"Ġperiod":6538,"Ġimg":6539,"09":6540,"CB":6541,"Ġdao":6542,"ĠCell":6543,"UNK":6544,"Ġflags":6545,"EVENT":6546,"mediate":6547,"æŀ":6548,"Ġcached":6549,"Clinical":6550,"Ġdeleted":6551,"Uid":6552,"kt":6553,"getInput":6554,"(\"</":6555,"viders":6556,"olygon":6557,"Angle":6558,"Drawer":6559,"Bad":6560,"ecycle":6561,"ĠLists":6562,"currentThread":6563,"Declared":6564,".</":6565,"Ġok":6566,"Ġweight":6567,"ĊĠĠĠĠĠĠĊĠĠĠĠĠ":6568,"Animator":6569,"city":6570,"atted":6571,"ĠstartActivity":6572,"radient":6573,"vanced":6574,"rate":6575,"ued":6576,"Ġgu":6577,"writeInt":6578,"ä¸Ń":6579,"annotation":6580,"ĠGeneric":6581,"ResponseBody":6582,"ĠSimpleDateFormat":6583,"Ġindic":6584,"pass":6585,"ĉĉĉĉĉĉĉĉ":6586,"dispose":6587,"gers":6588,"åĨ":6589,"getSelection":6590,"setup":6591,"Tables":6592,"zz":6593,"Asset":6594,"subscribe":6595,"fc":6596,"<?>>":6597,"ĠSettings":6598,"before":6599,"IGHT":6600,"Ġì":6601,"getBean":6602,"ĠFileInputStream":6603,"ĠHttpServletResponse":6604,"Else":6605,"ves":6606,"setData":6607,"Requests":6608,"userId":6609,"Ġ>>":6610,"<?,":6611,"46":6612,"alias":6613,"addAttribute":6614,"Ġlayer":6615,"pair":6616,"({":6617,"59":6618,"SV":6619,"xFF":6620,"Ġprodu":6621,"Ġloaded":6622,"Links":6623,"ĠAlert":6624,"BYTE":6625,"AMP":6626,"dp":6627,"Ġdid":6628,"!!":6629,"/>":6630,"Mgr":6631,"ĠContainer":6632,"++]":6633,"ĠBorderLayout":6634,"Speed":6635,"ii":6636,"(\"\\\"":6637,"Ġmaster":6638,"toUpperCase":6639,"ĠFlow":6640,"Ġprocessor":6641,"ĠnumberOf":6642,"ecessary":6643,"Ġarr":6644,"isIn":6645,"comm":6646,"timestamp":6647,"43":6648,"evaluate":6649,"ident":6650,"Exact":6651,"Ġdat":6652,"etAddress":6653,"Consum":6654,"Ġdiff":6655,"RIGHT":6656,"86":6657,"Pager":6658,"Ġnote":6659,"Dispatcher":6660,"Ġprocessing":6661,"Ġoccurs":6662,"Attempt":6663,"getEnd":6664,"Ġfoo":6665,"Ġchain":6666,"00000":6667,"Blob":6668,"SM":6669,"Team":6670,"cut":6671,"Ġè":6672,"YPE":6673,"bucket":6674,"sr":6675,"only":6676,"dev":6677,"Dev":6678,",-":6679,"px":6680,"safe":6681,"Contains":6682,"Changes":6683,"ĠConvert":6684,"Calcul":6685,"Ġcorrespond":6686,"lines":6687,"sync":6688,"ROOT":6689,"Hello":6690,"acc":6691,"home":6692,"preter":6693,"actions":6694,"Ġsuccessful":6695,"ĠResultSet":6696,"drop":6697,"mx":6698,"Ġes":6699,"ĠIgn":6700,"ĠFiles":6701,"DELETE":6702,"Docs":6703,"Course":6704,"ismatch":6705,"Ġinvocation":6706,"IndexOf":6707,"notNull":6708,"Tokenizer":6709,"Ġcharacters":6710,"statement":6711,"Warning":6712,"OFF":6713,"atis":6714,"ĠAll":6715,"ĠMatrix":6716,"illing":6717,"antlr":6718,"Ġdownload":6719,"sender":6720,"expr":6721,"Ġeffect":6722,"rammar":6723,"Roles":6724,"Ġbitmap":6725,"ĠVoid":6726,"Loaded":6727,"Ġartifact":6728,"ĠPARSER":6729,"FALSE":6730,"Horizontal":6731,"ks":6732,"Ġ\"</":6733,"Ġvert":6734,"Ġmeasure":6735,"abc":6736,"Ġlower":6737,"className":6738,"Ġorigin":6739,"Power":6740,"ĠĊĠĠĠ":6741,"Ġbb":6742,"ecraft":6743,"Principal":6744,"erged":6745,"()==":6746,"arLayout":6747,"TestCase":6748,"FieldName":6749,"Ġnothing":6750,"Ġvisible":6751,"grammar":6752,"Board":6753,"Mat":6754,"PS":6755,"åĩ":6756,"export":6757,"Ġdrop":6758,"permission":6759,"Ġcurrently":6760,"ParseException":6761,"49":6762,"WOR":6763,"Ġque":6764,"cee":6765,"previous":6766,"Ġactiv":6767,"THOD":6768,"Ġagent":6769,"CLIENT":6770,"Btn":6771,"ationException":6772,"Ġway":6773,"optional":6774,"47":6775,"filename":6776,"pet":6777,"anc":6778,"Ġbel":6779,"Ġreply":6780,"ĠDep":6781,"Ġchained":6782,"presentation":6783,"================":6784,"Deleted":6785,"Scheme":6786,"getTitle":6787,"depend":6788,"ĠgetC":6789,"ĠgetName":6790,"REG":6791,"executeQuery":6792,"ĠOutputStream":6793,"lator":6794,"getJ":6795,"Ġfeed":6796,"Ġwere":6797,"ordinal":6798,"ĠparseFrom":6799,"versation":6800,"ividual":6801,"getError":6802,"Exec":6803,"æľī":6804,"()-":6805,"Ġresolver":6806,"locator":6807,"getImage":6808,"Attach":6809,"):":6810,"lif":6811,"nb":6812,"Ġts":6813,"ĠDOM":6814,"ĠBY":6815,"pool":6816,"Matches":6817,"ĠAssertions":6818,"modifiable":6819,"509":6820,"Weather":6821,"////////////////":6822,"cludes":6823,"ology":6824,"ĠĊ":6825,"Ġpredicate":6826,"Setup":6827,"metric":6828,"ravity":6829,"ceeded":6830,"auto":6831,"Reply":6832,"rain":6833,"REL":6834,"Ġwhat":6835,"monitor":6836,"ĠAnnotation":6837,"na":6838,"¿½":6839,"İ·":6840,"consume":6841,"icture":6842,"ĠImmutableMap":6843,"Observ":6844,"WID":6845,"ÃĬ":6846,"ĠĠĠĠĠĠĠĠĠĠĠĠĠĠ":6847,"paign":6848,"Radio":6849,"SEVERE":6850,"directory":6851,"uet":6852,"Ġder":6853,"Logging":6854,"TableName":6855,"Ġextra":6856,"mapping":6857,"ura":6858,"utes":6859,"Ġsyn":6860,"Refer":6861,"ĠTABLE":6862,"ĠSw":6863,"Images":6864,"AndGet":6865,"ĠWhen":6866,"MQ":6867,"selection":6868,"Enter":6869,"Ġ13":6870,"TEGER":6871,"HttpClient":6872,"Ġuuid":6873,"Ġcreating":6874,"flag":6875,"Clean":6876,"Hook":6877,"Picker":6878,"çĽ":6879,"Ġsuch":6880,"ĊĠĠĠĠĠĠĠĠĠĠĠĠĠĠĠĠĠĠĠĠĠĠĠĠĠĠ":6881,"Ġrespon":6882,"ĠMin":6883,"ĠPos":6884,"ĠLoad":6885,"Initialized":6886,">{@":6887,"Na":6888,"uce":6889,"TestUtils":6890,"shutdown":6891,"OrBuilder":6892,"arraycopy":6893,"ensity":6894,"Relationship":6895,"hi":6896,"zone":6897,"aring":6898,"Ġoprot":6899,"igration":6900,"Protos":6901,"Ġstarting":6902,"spection":6903,"General":6904,"requireNonNull":6905,"alled":6906,"ĠAsync":6907,"ĠParseException":6908,"icket":6909,"Ġvisitor":6910,"Plot":6911,"ï¿½":6912,"Ġcenter":6913,"Ġfunc":6914,"setImage":6915,"EXTRA":6916,"åŃĹ":6917,"Dictionary":6918,"Pull":6919,"Super":6920,"Sorted":6921,"fit":6922,"pp":6923,"Ġmask":6924,"DED":6925,"Ġregistered":6926,"Routing":6927,"Ġoccurred":6928,"Association":6929,"Utf":6930,"Ġtv":6931,"ĠAss":6932,"ĠgetAll":6933,"urchase":6934,"equal":6935,"extension":6936,"Ġexternal":6937,"ĠComplet":6938,"showMessage":6939,"Ptr":6940,"Ġ\"%":6941,"akes":6942,"IDs":6943,"ĠModule":6944,"Push":6945,"Ġclosed":6946,"Ġhow":6947,"SHA":6948,"ä¸ª":6949,"Div":6950,"invalid":6951,"repository":6952,"Ġpixel":6953,"Const":6954,"endor":6955,"IDE":6956,"Ġcalendar":6957,"dap":6958,"Ġmov":6959,"Ġinv":6960,"izard":6961,"Ġyear":6962,"ĠfieldName":6963,"getPlayer":6964,"ifies":6965,"scope":6966,"UTE":6967,"Ġspecify":6968,"=\"+":6969,"ĠAmazon":6970,"FR":6971,"Lib":6972,"NBT":6973,"Vec":6974,"done":6975,"getPackage":6976,"Ġinside":6977,"ĠTuple":6978,"Ġhelper":6979,"Mob":6980,"âĢ":6981,"Ġ/**":6982,"Ġcs":6983,"ung":6984,"ĠPRO":6985,"ĠRet":6986,"čĊčĊ":6987,"ORIZ":6988,"Ġstarted":6989,"ĠJAXBElement":6990,"rientation":6991,"ASE":6992,"iry":6993,"lin":6994,"ĠScript":6995,"Ġ'\\":6996,"Vm":6997,"erved":6998,"Ġscanner":6999,"Specification":7000,"ExtensionRegistry":7001,"ScrollPane":7002,"ĠdomainObject":7003,"53":7004,"Free":7005,"Stamp":7006,"isation":7007,"Ġsaved":7008,"Realm":7009,"ARG":7010,"ENTITY":7011,"TODO":7012,"DIR":7013,"remote":7014,"asy":7015,"antic":7016,"Translation":7017,"Decoder":7018,"Removed":7019,"SUCCESS":7020,"Issue":7021,"riend":7022,"olt":7023,"ĠSign":7024,"Ġjar":7025,"Descriptors":7026,"ordinator":7027,"ĠPreconditions":7028,"Canvas":7029,"ILED":7030,"sequence":7031,"ĠPerson":7032,"ĠNetwork":7033,"velope":7034,"OutOf":7035,"Ġcapacity":7036,"TD":7037,"ĠÃ":7038,"emplates":7039,"ĊĠĠĠĠĠĠĠĠĠĠĠĠĠĠĠĠĠĠĠĠĠĠĠĠĠĠĠĠĠĠ":7040,"escape":7041,"ji":7042,"ĠNew":7043,"ĠConstruct":7044,"iddle":7045,"NOR":7046,"ada":7047,"Ġenter":7048,"Radius":7049,"ĠOrder":7050,"bundle":7051,"ĠĊĠĠĠĠĠĠĠĠĠĠĠĠĠĠĠ":7052,"parseFrom":7053,"ĊĉĉĊ":7054,"EventType":7055,"Ġunknown":7056,"den":7057,"ktop":7058,"year":7059,"æģ":7060,"setInt":7061,"ĠMAX":7062,"Notify":7063,"Ġrequests":7064,"HandlerContext":7065,"\")){":7066,"language":7067,"Spinner":7068,"ehicle":7069,"Choice":7070,"748":7071,"constraint":7072,"prev":7073,"Decor":7074,"Threads":7075,"objects":7076,"æĹ¶":7077,"Opt":7078,"Ġ));":7079,"defined":7080,"addGroup":7081,"ERS":7082,"STEM":7083,"RequestMetrics":7084,"ĠparamInt":7085,"\")))":7086,"ĠstartTime":7087,"Eval":7088,"Sink":7089,"chunk":7090,"eclipse":7091,"ĠJButton":7092,"Ġroute":7093,"JsonObject":7094,"utomatic":7095,"07":7096,"ĊĉĠĠĠĠĠĠĠĠ":7097,"ithub":7098,"proxy":7099,"ocker":7100,"uggest":7101,"ĠVALUE":7102,"uetooth":7103,"ĠEntry":7104,"getHeader":7105,"Unsupported":7106,"scroll":7107,"Ġtasks":7108,"Ġrelative":7109,"ĠBytes":7110,"Ġtuple":7111,"inger":7112,"Ġtheir":7113,"Callable":7114,"NOWN":7115,"onymous":7116,"nowledge":7117,"Ġpeer":7118,"Testing":7119,"ENABLE":7120,"POINT":7121,"ĠTool":7122,"ĠbitField":7123,"æķ°æį®":7124,"aught":7125,"Ġtri":7126,"Ġself":7127,"REF":7128,"ipher":7129,"ĠVirtual":7130,"Ġactions":7131,".\"));":7132,"Between":7133,"Now":7134,"dfs":7135,"Ġsuite":7136,"Ġprot":7137,"ATURE":7138,"Disabled":7139,"Clicked":7140,"Ġwrong":7141,"uggestion":7142,"()+":7143,"Ġvirtual":7144,"Ġhistory":7145,"ĠInstance":7146,"ograph":7147,"ĠTextView":7148,"Ġrepo":7149,"Functions":7150,"ĠTransform":7151,"MediaType":7152,"Origin":7153,"PAGE":7154,"getQuery":7155,"getProperties":7156,"Ġcc":7157,"Ġcore":7158,"Ġrules":7159,"Review":7160,"obs":7161,"fieldName":7162,"Foreground":7163,"Sources":7164,"ashboard":7165,"FIRST":7166,"redict":7167,"Ġlisteners":7168,"Ġencoded":7169,"Ġbackground":7170,"Zip":7171,"ourn":7172,"å¾":7173,"orary":7174,"ilar":7175,"ERO":7176,"descriptor":7177,"rand":7178,"Ġconstruct":7179,"Ġgroups":7180,"ELEMENT":7181,"!\",":7182,"Browser":7183,"Rpc":7184,"Sem":7185,"uy":7186,"ĠEditor":7187,"include":7188,"room":7189,"Ġdirection":7190,"ĠCloud":7191,"iving":7192,"ĠRout":7193,"Ġ255":7194,"groups":7195,"Ġ../":7196,"Ġwidget":7197,"moveTo":7198,"Alt":7199,"orrelation":7200,"æĪĲ":7201,"Ġsmall":7202,"atter":7203,"stats":7204,"DIS":7205,"Ġworker":7206,"Ġabs":7207,"Ġtoo":7208,"getPosition":7209,"seq":7210,"ĠStorage":7211,"QUER":7212,"SING":7213,"TASK":7214,"big":7215,"global":7216,"Ġsymbol":7217,"Android":7218,"ĠCharacter":7219,"ĠMemory":7220,"æģ¯":7221,"feed":7222,"master":7223,"Ġpe":7224,"INVALID":7225,"ĠOper":7226,"ants":7227,"DialogInterface":7228,"elements":7229,"IGN":7230,"Destroy":7231,"plica":7232,"Persistence":7233,"'re":7234,"Ġleast":7235,"Resolve":7236,"aff":7237,"detail":7238,"Cons":7239,"ĠSpec":7240,"ClientException":7241,"LOCATION":7242,"Ġstrings":7243,"Ġrecords":7244,"Drag":7245,"elem":7246,"poll":7247,"getID":7248,"Respon":7249,"newArrayList":7250,"removeAll":7251,">\",":7252,"BIND":7253,"tags":7254,"getLog":7255,"getBase":7256,"Release":7257,"Backup":7258,"Confirm":7259,"Facade":7260,"ASS":7261,"ĊĊĠĠĠĠĠĠĠĠ":7262,"ĠCan":7263,"RECT":7264,"ĠRepository":7265,"Distribution":7266,"Ġoperations":7267,"UBLE":7268,"Der":7269,"RS":7270,"created":7271,"ĊĠĠĠĠĠĠĠĠĠĠĠĠĠĠĠĠĠĠĠĠĠĠĠĠĠĠĠĠĠ":7272,"ĠGlobal":7273,"Organization":7274,"Ġbinary":7275,"Ġselector":7276,"Ġmonth":7277,">());":7278,"gc":7279,"etic":7280,"setM":7281,"redit":7282,"ĠWindow":7283,"single":7284,"serialize":7285,"39":7286,"bot":7287,"éĩ":7288,"alpha":7289,"repeated":7290,"Study":7291,"Ġlon":7292,"getServer":7293,"Actual":7294,"Mappings":7295,"ĠEm":7296,"real":7297,"Ġbs":7298,"configure":7299,"Compiler":7300,"processor":7301,"Ġcomponents":7302,"NEW":7303,"aries":7304,"ĠsetContent":7305,"Ġcalling":7306,"ĠViewGroup":7307,"FFER":7308,"Rectangle":7309,"Camera":7310,"PREFERRED":7311,"media":7312,"addChild":7313,"ildcard":7314,"ĠTests":7315,"Ġworkspace":7316,"Market":7317,"ooter":7318,"Assignable":7319,"GUI":7320,"tics":7321,"isSelected":7322,"platform":7323,"Ġforce":7324,"Ġ14":7325,"å®ļ":7326,"BLOCK":7327,"TON":7328,"ĊĠĠĠĠĠĠĠĠĠĠĠĠĠĠĠĠĊĠĠĠĠĠĠĠĠĠĠĠĠĠĠĠ":7329,"NA":7330,"high":7331,"iling":7332,"ĠFont":7333,"GroupId":7334,"Ġalert":7335,"startActivity":7336,"di":7337,"site":7338,"tl":7339,"vince":7340,"getResponse":7341,"Install":7342,"addListener":7343,"NodeId":7344,"Ġshape":7345,"gree":7346,"Ġperm":7347,"Ġborder":7348,"Ġeq":7349,"ĠMark":7350,"Ġdelay":7351,"Coded":7352,"getBody":7353,"ĠConstructor":7354,"singletonList":7355,"mkdir":7356,"Cycle":7357,"Sound":7358,"ĠFind":7359,"Leaf":7360,"bedded":7361,"camel":7362,"iagnostic":7363,":\\":7364,"Safe":7365,"()}":7366,"Ġthese":7367,"Ġpipeline":7368,"los":7369,"ĠTop":7370,"čĊĠĠĠĠĉ":7371,"getCause":7372,">>>>":7373,"Ġconstraints":7374,"ĠUnsupportedOperationException":7375,"Ġcorresponding":7376,"İ·åıĸ":7377,"ExtensionRegistryLite":7378,"Fire":7379,"ĠCore":7380,"ĠRule":7381,"counter":7382,"sheet":7383,"getView":7384,"illed":7385,"note":7386,"58":7387,"So":7388,"æĿ":7389,"ining":7390,"ention":7391,"amazon":7392,"Ġbest":7393,"Prot":7394,"FieldBuilder":7395,"Preview":7396,"DOC":7397,"getTotal":7398,"TIMEOUT":7399,"Broker":7400,"Mi":7401,"Ġpres":7402,"quires":7403,"ĠRender":7404,"Ġalt":7405,"PASS":7406,"ĠInputStreamReader":7407,"UNKNOWN":7408,"socket":7409,"åį":7410,"imation":7411,"Ġ24":7412,"Counts":7413,"Ġupload":7414,"Ġsubscription":7415,"clean":7416,"mc":7417,"aredPreferences":7418,"ynchronous":7419,"Ġtimer":7420,"CLOSE":7421,"]).":7422,"lev":7423,"Ġinvok":7424,"subject":7425,"TRANS":7426,"WITH":7427,"ae":7428,"hide":7429,"æİ":7430,"ante":7431,"ational":7432,"Ġinject":7433,"Ġtests":7434,"Ġ'%":7435,"ĠRemove":7436,"ĠprotocolMarshaller":7437,"SIGN":7438,"Ġless":7439,"Ġhtml":7440,"Commands":7441,"Ġgenerator":7442,"Perm":7443,"synchronized":7444,"Ġarch":7445,"ĠStatement":7446,"async":7447,"andra":7448,"SYSTEM":7449,"blems":7450,"MD":7451,"sup":7452,"rior":7453,"users":7454,"ĠME":7455,"RITE":7456,"Ġneeds":7457,"ĠPrintWriter":7458,"snapshot":7459,"getInputStream":7460,"assandra":7461,"arguments":7462,"Previous":7463,"Ġupper":7464,"MILLI":7465,"QUERY":7466,"ĠByteArrayInputStream":7467,"putString":7468,"Coll":7469,"ĊĠĠĠĠĠĠĠĠĠĠĠĠĠĠĠĠĠĠĠĠĠĠĠĠĠĠĠĠĠĠĠĠĠĠĠĠ":7470,"Ġretrie":7471,"BUT":7472,"UCT":7473,"Ġregist":7474,"forName":7475,"Manifest":7476,"Skip":7477,"å°":7478,"oned":7479,"getList":7480,"Ġbig":7481,"Ġmost":7482,"DOM":7483,"ãģ®":7484,"numberOf":7485,"MATCH":7486,"Abs":7487,"LLOW":7488,"Padding":7489,"Using":7490,"ifference":7491,"setN":7492,"RESOURCE":7493,"errors":7494,"Edges":7495,"localctx":7496,"[]{\"":7497,"enus":7498,"aming":7499,"tegr":7500,"Comput":7501,"Defined":7502,"Deprecated":7503,">>>":7504,"canvas":7505,"Cookie":7506,"EClass":7507,"]))":7508,"sim":7509,"getOutput":7510,"Ġmd":7511,"concat":7512,"Analyzer":7513,"Behavior":7514,"Targets":7515,"ootstrap":7516,"Foo":7517,"Lex":7518,"Ġavoid":7519,"otionEvent":7520,"Less":7521,"ats":7522,"Ġevalu":7523,"imeType":7524,"ItemSelected":7525,"anned":7526,"ĠSelect":7527,"->":7528,"Self":7529,"cret":7530,"cision":7531,"ÃĦ":7532,"ĊĊĠ":7533,"lastIndexOf":7534,"Ġcustomer":7535,"åŃĺ":7536,"WHITE":7537,"}</":7538,"Procedure":7539,"ĊĉĉĉĉĉĊĉĉĉĉ":7540,"notification":7541,"\\\",\\\"":7542,"MouseEvent":7543,"åľ¨":7544,"Days":7545,"Ġpopulate":7546,"Exceptions":7547,"izing":7548,"Share":7549,"findBy":7550,"getPort":7551,"phone":7552,"Ġprice":7553,"Suffix":7554,"ionError":7555,"Ġnative":7556,"Ġpw":7557,"ĠAnal":7558,"Imp":7559,"ITLE":7560,"Positive":7561,"Ġreading":7562,"Operand":7563,"Ġmeans":7564,"WARNING":7565,"RUN":7566,"primary":7567,"images":7568,"getMem":7569,"Assessment":7570,"rd":7571,"æ³":7572,"Ġlaunch":7573,"REC":7574,"Unexpected":7575,"ANG":7576,"Ġprefs":7577,"rypto":7578,"vari":7579,"éĹ":7580,"ster":7581,"toByteArray":7582,"controller":7583,"park":7584,"ccurr":7585,"Ġ40":7586,"utils":7587,"isNotEmpty":7588,"LIN":7589,"WR":7590,"XY":7591,"equalTo":7592,"Ġ{//":7593,"TEMP":7594,"await":7595,"weet":7596,"ĠKeyEvent":7597,"prepareStatement":7598,"Ġnamed":7599,"Ġelem":7600,"ValuePair":7601,"MOD":7602,"plicit":7603,"å¯¹":7604,"AIN":7605,"cn":7606,"ĊĊĉĉĉĉĉ":7607,"getIs":7608,"utor":7609,"ĠSE":7610,"Overlay":7611,"cons":7612,"Extensions":7613,".*":7614,"Clear":7615,"Ġtc":7616,"iration":7617,"Complex":7618,"Ġflush":7619,"Registered":7620,"CATE":7621,"PLA":7622,"Zoom":7623,"dim":7624,"yth":7625,"ĠgetActivity":7626,"Ġdecode":7627,"Configs":7628,"Restriction":7629,"getColumnIndex":7630,"Ġanimation":7631,"}/":7632,"ĠControl":7633,"getDate":7634,"amount":7635,"Ġchart":7636,"Heap":7637,"erializer":7638,"ĠMetadata":7639,"Sn":7640,"}\\":7641,"inu":7642,"alformed":7643,"pear":7644,"irc":7645,"Pref":7646,"pref":7647,"ĠRuntime":7648,"FOLLOW":7649,"Geometry":7650,"åĽŀ":7651,"Â»":7652,"Ġct":7653,"Ł¥":7654,"uman":7655,"ailability":7656,"Accessible":7657,"MOVE":7658,"IMAGE":7659,"ursive":7660,"HEADER":7661,";\");":7662,"You":7663,"isDirectory":7664,"čĊčĊĠĠĠĠĠĠĠĠĠĠĠĠĠĠĠ":7665,"ARK":7666,"Shift":7667,"Ġzip":7668,"Indent":7669,"MONTH":7670,"ORE":7671,"Rew":7672,"è½":7673,"rep":7674,"Ġ!(":7675,"ĠIP":7676,"aching":7677,"Ġthreads":7678,"Ġseconds":7679,"getStatusCode":7680,"Bridge":7681,"Clock":7682,"uer":7683,"ĠCard":7684,"Ġroom":7685,"LIM":7686,"Ġauthentication":7687,"ĠServletException":7688,"Ratio":7689,"yper":7690,"ĠId":7691,"ĠUN":7692,"anded":7693,"setParameter":7694,"ĊĠĠĠĠĠĠĠĠĠĠĠĠĠĠĠĠĠĠĠĠĠĠĠĠĠĠĠĠĠĠĠĠĠĠ":7695,"cos":7696,"gb":7697,"nail":7698,"chain":7699,"Reset":7700,"Ġgot":7701,"Shadow":7702,"URLConnection":7703,"Ġtxt":7704,"Ġbuff":7705,"METHOD":7706,"calculate":7707,"urvey":7708,"Ticket":7709,"è´":7710,"isAssignable":7711,"ĠTYPE":7712,"Ġevaluate":7713,"valueObject":7714,"getCl":7715,"Coordinate":7716,"ĠAndroid":7717,"QUI":7718,"ua":7719,"Ġ]":7720,"Ġcert":7721,"Prob":7722,"rack":7723,"Matching":7724,"255":7725,"ÐµÐ":7726,"73":7727,"Dem":7728,"OPER":7729,"bench":7730,"iet":7731,"ĠValidation":7732,"del":7733,"assertNull":7734,"ĠDraw":7735,"Ġidentity":7736,"ä¿¡":7737,"WORK":7738,"ef":7739,"ĠVariable":7740,"ĠRegion":7741,"ĠChat":7742,"ĠChange":7743,"hello":7744,"IVITY":7745,"SyntaxException":7746,"ython":7747,"FROM":7748,"basic":7749,"uent":7750,"Ġrelease":7751,"ĠTemplate":7752,"resp":7753,"Img":7754,"Buttons":7755,"72":7756,"quip":7757,"Ġresolved":7758,"paction":7759,"Jobs":7760,"columns":7761,"copyOf":7762,"CACHE":7763,"Offer":7764,"68":7765,"Binder":7766,"orElse":7767,"getToken":7768,"isTrue":7769,"Ġpending":7770,"Ġms":7771,"igure":7772,"ĊĠĠĠĠĠĠĠĠĠĠĠĠĠĠĠĠĠĠĠĠĠĠĠĠĠĠĠĠĠĠĠĠĠ":7773,"Editable":7774,"BINDING":7775,"Ġtake":7776,"getDeclared":7777,"losure":7778,"Ġobt":7779,"Ġloading":7780,"Ġreceive":7781,"Ġstructure":7782,"Ġhappen":7783,"jax":7784,"Ġ~":7785,"getAttributes":7786,"Logic":7787,"Ġconfigured":7788,"Visit":7789,"arshal":7790,"Wrong":7791,"GIN":7792,"Words":7793,"cor":7794,"xff":7795,"ĠSee":7796,"ĠMake":7797,"ĠHel":7798,"Prefs":7799,"Receive":7800,"ĠĊĉĉĉĉ":7801,"Ġservlet":7802,"Inst":7803,"quival":7804,"Scene":7805,"Ġpaths":7806,"256":7807,"umbnail":7808,"WIDTH":7809,"witter":7810,"Ġquestion":7811,"ised":7812,"Ġinstruction":7813,"EventListener":7814,"flags":7815,"SERT":7816,"PARATOR":7817,"Cert":7818,"ador":7819,"Ġwrap":7820,"finally":7821,"writeString":7822,"ĠReport":7823,"ultipart":7824,"Ġreceiver":7825,"Orientation":7826,"Ġdue":7827,"Ġgc":7828,"Ġdev":7829,"ActionBar":7830,"Locations":7831,"rollback":7832,"ĠinputStream":7833,"Authentic":7834,"tokens":7835,"GENER":7836,"Ġattempt":7837,"junit":7838,"ç¬":7839,"Ins":7840,"setFont":7841,"Ġinputs":7842,"ĠRegister":7843,"Versions":7844,"Ġencode":7845,"ABEL":7846,"Ġassign":7847,"Ġpermissions":7848,"RAN":7849,"currency":7850,"fn":7851,"))).":7852,"Cached":7853,"Hierarchy":7854,"Ring":7855,"eray":7856,"reply":7857,"Ġ\":\"":7858,"Special":7859,"ĠĠĠĠĠĠĠĠĠĠĠĠĠĠĠĠĠĠĠĠĠĠĠĠĠĠĠĠĠĠĠĠĠĠĠĠĠĠĠĠĠĠĠĠĠĠĠĠĠĠĠĠĠĠĠĠĠĠĠĠĠĠĠĠ":7860,"oringHelper":7861,"dn":7862,"det":7863,"åĮ":7864,"Ġcatalog":7865,"assist":7866,"ĊĉĉĉĊĉ":7867,"Ġ?>":7868,"hasMore":7869,"ĊĠĠĠĠĠĠĠĠĠĠĠĠĠĠĠĠĠĠĠĠĠĠĠĠĠĠĠĠĠĠĠĠĠĠĠĠĠĠĠĠĠĠĠĠĠĠĠĠĠĠĠ":7870,"Ġspecial":7871,"partment":7872,"ĠAdds":7873,"reaterThan":7874,"dao":7875,"ĠRecognitionException":7876,"ĠArgument":7877,"PP":7878,"Roll":7879,"]=":7880,"cas":7881,"Ġsem":7882,"Include":7883,"setUser":7884,"ĠSWT":7885,"Indexes":7886,"YE":7887,"Ġcomput":7888,"Ġsets":7889,"caling":7890,"åĪ°":7891,"AVA":7892,"RC":7893,"Rank":7894,"ales":7895,"Ġhold":7896,"ĠPersist":7897,"Unmarshaller":7898,"download":7899,"BB":7900,"MAL":7901,"urable":7902,"sect":7903,"Ġvideo":7904,"ONLY":7905,"ounds":7906,"Vertical":7907,"Anchor":7908,"Mediator":7909,"SCHE":7910,"VK":7911,"Ġns":7912,"omial":7913,"Ġhit":7914,"classes":7915,"ATIVE":7916,"Chars":7917,"æĸ°":7918,"Ġmarker":7919,"Qualifier":7920,"Existing":7921,"messages":7922,"getActive":7923,"addItem":7924,"Contain":7925,"AMETER":7926,"ĠConnect":7927,"yyyy":7928,"Aggregation":7929,"ones":7930,"getLine":7931,"lications":7932,"Ġcommon":7933,"Ġdisk":7934,"Ġmodify":7935,"showMessageDialog":7936,"Band":7937,"WRITE":7938,"atype":7939,"References":7940,"ops":7941,"shape":7942,"ARCH":7943,"Ġcalcul":7944,"Wrap":7945,"Ġdynamic":7946,"Ġthrowable":7947,"ROW":7948,"ĠBlocks":7949,"Ġcr":7950,"ĠProgress":7951,"Ġtrace":7952,"Ġmembers":7953,"Ġ\".\"":7954,"econds":7955,"Circle":7956,"Nested":7957,"fh":7958,"rar":7959,"ze":7960,"Encoded":7961,"allback":7962,"Participant":7963,"ĠJSONArray":7964,"going":7965,"Ġboard":7966,";\",":7967,"Bool":7968,"mn":7969,"locale":7970,"Ready":7971,"čĊĉĉĉĉĉĉĉĉ":7972,"ĠParser":7973,"skin":7974,"Surface":7975,"setBounds":7976,"ĠCON":7977,"INPUT":7978,"RecyclerView":7979,"CONTEXT":7980,"Dirs":7981,"ĠjsonObject":7982,"Geo":7983,"åĬł":7984,"PreferredSize":7985,"Ġfixed":7986,"Ġev":7987,"aves":7988,"ErrorMessage":7989,"Ġsubmit":7990,"kernel":7991,"SharedPreferences":7992,"Extractor":7993,"ĠgetInstance":7994,"---":7995,"ĠArt":7996,"è¿Ķ":7997,"00000001":7998,"è¡Į":7999,"Correct":8000,"Mac":8001,"elet":8002,"Ġstage":8003,"MEM":8004,"Ġalgorithm":8005,"getCan":8006,"ChangeEvent":8007,"ãĥ¼":8008,"ĠPlugin":8009,"packet":8010,"featureID":8011,"æĸĩä»¶":8012,"JS":8013,"OLE":8014,"TING":8015,"Ġpublish":8016,"Ġsn":8017,"background":8018,"parseDouble":8019,"Ġlabels":8020,"alancer":8021,"Absolute":8022,"Fact":8023,"repo":8024,"putAll":8025,"Upgrade":8026,"ĠMatcher":8027,"IFIER":8028,"existing":8029,"liferay":8030,"Lang":8031,"orer":8032,"getPage":8033,"Ġ}{@":8034,"Ġred":8035,"ĠCursor":8036,"FAIL":8037,"Ġretry":8038,"grpc":8039,"Vars":8040,"plus":8041,"fac":8042,"CHECK":8043,"Regex":8044,"QualifiedName":8045,"RT":8046,"åī":8047,"atory":8048,"Ġcredentials":8049,"Ġcfg":8050,"ili":8051,"ĠTarget":8052,"acao":8053,"SPON":8054,"ĠsetContentView":8055,"Acc":8056,"eval":8057,"yles":8058,"Ã³":8059,"inventory":8060,"ĠBl":8061,"89":8062,"Ops":8063,"nl":8064,"Ġwell":8065,"tology":8066,"ĠBit":8067,"Ġcoll":8068,"Charset":8069,"Ġstrategy":8070,"isAssignableFrom":8071,"Patch":8072,"fx":8073,"Ġcast":8074,"Ġrealm":8075,"ĠIS":8076,"usters":8077,"Actor":8078,"Ġplatform":8079,"ĠReference":8080,"Parts":8081,"checkNotNull":8082,"Ġwrapper":8083,"ium":8084,"erc":8085,"Ġseries":8086,"upload":8087,"Notes":8088,"MEDI":8089,"vertex":8090,"located":8091,"Definitions":8092,"Conflict":8093,"warning":8094,"Dependencies":8095,"ParallelGroup":8096,".,":8097,"Bi":8098,"Viol":8099,"tile":8100,"widget":8101,"inct":8102,"allocate":8103,"verity":8104,"Ġconverted":8105,"PART":8106,"Ġoverride":8107,"ĠPsiElement":8108,"fficient":8109,"74875":8110,"()!=":8111,"adoc":8112,"Ġdom":8113,"endpoint":8114,"Upd":8115,"Resolved":8116,"ITEM":8117,"ĊĉĠĠĠĠĠĠĠĠĠĠĠ":8118,"Ġexec":8119,"Ġlow":8120,"portal":8121,"Blocking":8122,"Submit":8123,"Flush":8124,"_\"":8125,"agic":8126,"ĠAST":8127,"ĠDist":8128,"oves":8129,"ĊĠĠĠĠĠĠĠĠĠĠĠĠĠĠĠĠĠĠĠĠĠĠĠĠĠĠĠĠĠĠĠĠĠĠĠĠĠ":8130,"getClassLoader":8131,"Ġworkflow":8132,"Ġinitialized":8133,"Publisher":8134,"nano":8135,"Ġnone":8136,"headers":8137,"NoSuch":8138,"ĠStruct":8139,"runc":8140,"Ġserialize":8141,"BLA":8142,"Cause":8143,"TITLE":8144,"bottom":8145,"each":8146,"Ġsr":8147,"Ġmight":8148,"ĠPermission":8149,"Ġonce":8150,"ĠFuture":8151,"subscription":8152,"Discovery":8153,"ãĤĴ":8154,"Ġinstall":8155,"Feedback":8156,"ĠPackage":8157,"ĠAlertDialog":8158,"Margin":8159,"publish":8160,"ĠConstant":8161,"install":8162,"Ġplot":8163,"createParallelGroup":8164,"AsStream":8165,"DBC":8166,"ĠProduct":8167,"DownLatch":8168,"ĠBufferedImage":8169,"destroy":8170,"distance":8171,"ĠHandler":8172,"Google":8173,"Tenant":8174,"dy":8175,"Ãĥ":8176,"getAddress":8177,"Perform":8178,"MASK":8179,"Evaluator":8180,"syn":8181,"}}":8182,"Â´":8183,"ĠKEY":8184,"entries":8185,"Ġvolume":8186,"Lists":8187,"uffle":8188,"Ġkind":8189,"Ġprocessed":8190,"PREF":8191,"pis":8192,"isc":8193,"Ġvia":8194,"Inputs":8195,"ĠconvertView":8196,"Ġdetermine":8197,"ournal":8198,"79":8199,"github":8200,"etty":8201,"Ġfocus":8202,"putInt":8203,"Ġprom":8204,"ReturnType":8205,"Ġcreation":8206,"æŀľ":8207,"85":8208,"Dom":8209,"Managed":8210,"æĶ":8211,"ĠEND":8212,"ingBox":8213,"ading":8214,"Representation":8215,"Resume":8216,"pli":8217,"Ġforward":8218,"Cols":8219,"getSc":8220,"EntityManager":8221,"ĠVM":8222,"ĊĠĠĠĠĠĠĠĠĠĠĠĠĠĠĠĠĠĠĠĠĠĠĠĠĠĠĠĠĠĠĠĠĠĠĠĠĠĠĠĠĠĠ":8223,"RIPTION":8224,"FOUND":8225,"ĠActionListener":8226,"Ġconnector":8227,"Like":8228,"jdbc":8229,"Ġui":8230,"ĊĉĉĠ":8231,"iform":8232,"Ġwords":8233,"ĠgetDefault":8234,"Ġproducer":8235,"Numeric":8236,"execution":8237,"aption":8238,"Star":8239,"Ġcp":8240,"setRequest":8241,"Ġyy":8242,"Ġuses":8243,"crete":8244,"Hit":8245,"ÃĲ":8246,"ernel":8247,"ĉĉĊĉ":8248,"Ġnested":8249,"Ġpatient":8250,"createQuery":8251,"tableName":8252,"åĲį":8253,"Cancelled":8254,"mergeFrom":8255,"ĠBean":8256,"Later":8257,"Pages":8258,"med":8259,"setDescription":8260,"ĊĠĠĠĠĠĠĠĠĠĠĠĠĠĠĠĠĠĠĠĠĠĠĠĠĠĠĠĠĠĠĠĠĠĠĠĠĠĠ":8261,"destination":8262,"Sequential":8263,"Care":8264,"Esc":8265,"Elem":8266,"bus":8267,"Ġnb":8268,"Ġnecessary":8269,"Ġservices":8270,"Ġsomething":8271,"RESS":8272,"etermin":8273,"Alarm":8274,"TagCompound":8275,"executeUpdate":8276,"Curve":8277,"II":8278,"vs":8279,"writ":8280,"atMap":8281,"Ġown":8282,"Ġsuccessfully":8283,"ĠScanner":8284,"_)":8285,"sin":8286,"ableFuture":8287,"inality":8288,"artifact":8289,"lower":8290,"Ġcaller":8291,"ĠDevice":8292,"parts":8293,"BIT":8294,"two":8295,");//":8296,"Ġtenant":8297,"Ġscheduler":8298,"Ġaudio":8299,"ĠSocket":8300,"Ġlibrary":8301,"Keyword":8302,"getSchema":8303,"izedMessage":8304,"Ġcls":8305,"dismiss":8306,"åĢ":8307,"alert":8308,"printf":8309,"positor":8310,"atisf":8311,"ignore":8312,"ills":8313,"FACT":8314,"ReadOnly":8315,"disable":8316,"getDefaultInstance":8317,"Ġindices":8318,"NaN":8319,"za":8320,"Ġstandard":8321,"STAMP":8322,"caled":8323,"ï¼ļ":8324,";}":8325,"lbl":8326,"olid":8327,"setTime":8328,"ĠMeta":8329,"PARAMETER":8330,"Den":8331,"JB":8332,"Sdk":8333,"Way":8334,"bon":8335,"Station":8336,"ServiceException":8337,"FIL":8338,"runtime":8339,"ĠChecks":8340,"Ġissue":8341,"Face":8342,"StringBuffer":8343,"addr":8344,"Ġshift":8345,"Parsed":8346,"ĠWrite":8347,"HttpServletResponse":8348,"Navigation":8349,"egr":8350,"Ġrate":8351,"shared":8352,"NumberFormatException":8353,"ĠAddress":8354,"Where":8355,"Captor":8356,"OIN":8357,"PU":8358,"Publish":8359,"must":8360,"symbol":8361,"é¡":8362,"eting":8363,"ena":8364,"getTransaction":8365,"Ġpopup":8366,"Ġsheet":8367,"AndView":8368,"Ġassignment":8369,"Toolbar":8370,"metrics":8371,"ĠmergeFrom":8372,"'\",":8373,"41":8374,"MT":8375,"ha":8376,"ä¼":8377,"getUrl":8378,"setAdapter":8379,"Ġdto":8380,"ĠPort":8381,"undo":8382,"opulation":8383,"Keep":8384,"Tax":8385,"stone":8386,"Ġpm":8387,"Ġdiv":8388,"ĠresultSet":8389,"Outer":8390,"Terminal":8391,"Func":8392,"Solution":8393,"VEL":8394,"identifier":8395,"setCurrent":8396,"ĠSAX":8397,"parable":8398,"ĠThere":8399,"Ġupdates":8400,"Ġunits":8401,"Ġusage":8402,"Grant":8403,"CURRENT":8404,"¾ç½®":8405,"Â¼":8406,"licies":8407,"estor":8408,"readString":8409,"Apply":8410,"Plus":8411,"ĠStep":8412,"ĠJsonObject":8413,"Ġfinished":8414,"Ġcf":8415,"Ġpt":8416,"returns":8417,"ĠMaterial":8418,"INIT":8419,"SEPARATOR":8420,"SSL":8421,"Compilation":8422,"Ġbackup":8423,"BUFFER":8424,"ĠRequestMethod":8425,"Ġradius":8426,":\"+":8427,"Audit":8428,"CKE":8429,"ev":8430,"chant":8431,"Ġdim":8432,"ĠSort":8433,"ĠVerify":8434,"ContentType":8435,"Ġcharset":8436,"Resolution":8437,"Ġcompleted":8438,"OutOfBounds":8439,"?,":8440,"PD":8441,"getZ":8442,"Ġbad":8443,"setHeader":8444,"Topology":8445,"Ġcollect":8446,"Executable":8447,"è®¾ç½®":8448,"finished":8449,"123456":8450,"Ġannotations":8451,"SINGLE":8452,">\";":8453,"patient":8454,"getAnnotation":8455,"Ġ}).":8456,"ulator":8457,"Ġpi":8458,"Comments":8459,"Quick":8460,"Subscriber":8461,"____":8462,"Transactional":8463,"diff":8464,"ĠgetCurrent":8465,"ervation":8466,"NullPointerException":8467,"Ġparsing":8468,"Company":8469,"Steps":8470,"Redirect":8471,"ĠLinkedHashMap":8472,"domainObject":8473,"52":8474,"Frequency":8475,"Typed":8476,"unmodifiable":8477,"Ġ+\"":8478,"Additional":8479,"duce":8480,"Ð°Ð":8481,"versal":8482,"ajor":8483,"Implementation":8484,"BUTTON":8485,"Acl":8486,"GO":8487,"inated":8488,"assign":8489,"Ġdy":8490,"otor":8491,"ĠOther":8492,"LOAT":8493,"SDK":8494,"=%":8495,"zero":8496,"Ġnegative":8497,"rott":8498,"Ġsolution":8499,"agraph":8500,"unlock":8501,"ForValue":8502,"Classpath":8503,"Ġentities":8504,"spector":8505,"Mockito":8506,">>();":8507,"Poll":8508,"cx":8509,"Â±":8510,"getTask":8511,"setIs":8512,"setSelection":8513,"ĠPO":8514,"ĠFeature":8515,"Assemb":8516,"FAILED":8517,"longValue":8518,"HashCode":8519,"MainActivity":8520,"LABEL":8521,"RPC":8522,"mask":8523,"support":8524,"getLabel":8525,"relation":8526,"Ġround":8527,"Ġpreferences":8528,"Ġworking":8529,"Highlight":8530,"Currency":8531,"pow":8532,"war":8533,"ette":8534,"Ġmillis":8535,"Ġdt":8536,"Ġiprot":8537,"irth":8538,"ĠBack":8539,"constant":8540,"Models":8541,"ĠProtocol":8542,"Ġcoordinate":8543,"getTest":8544,"ĠIs":8545,"Ġtesting":8546,"Modifiers":8547,"ĠYou":8548,"Bulk":8549,"binding":8550,"aper":8551,"otes":8552,"addTest":8553,"newValue":8554,"Ġalpha":8555,"Matchers":8556,"visible":8557,"ACTIVITY":8558,"Dot":8559,"Err":8560,"Verify":8561,"itation":8562,"ulo":8563,"uby":8564,"Ġrand":8565,"Ġeval":8566,"Until":8567,"attach":8568,"Ġblocks":8569,"Ġdesired":8570,"cluding":8571,"Many":8572,"mut":8573,"Invoice":8574,"Ġ\"--":8575,"spring":8576,"Modules":8577,"ĠHeader":8578,"Damage":8579,"dimension":8580,"hadoop":8581,"delta":8582,"Ġrc":8583,"loop":8584,"igo":8585,"ArrayEquals":8586,"Appro":8587,"Ġseq":8588,"QueryBuilder":8589,"getIdentifier":8590,"Ġcommands":8591,"Photo":8592,"Ġindent":8593,"Digest":8594,"è¡¨":8595,"+\",":8596,"tract":8597,"essaging":8598,"Ġexact":8599,"Deploy":8600,"Shell":8601,"Ġroles":8602,"Ġ\\\"\"":8603,"unknown":8604,"Serializable":8605,"UnknownFields":8606,"Hints":8607,"asyMock":8608,"Pol":8609,"ti":8610,"ents":8611,"Compare":8612,"PROJECT":8613,"Working":8614,"Contacts":8615,"Original":8616,"DC":8617,"Ñĥ":8618,"éĻ":8619,"Ġpriority":8620,"Insn":8621,"Ġbranch":8622,"Ġmut":8623,"libr":8624,"Ġdep":8625,"ĠFileSystem":8626,"MAIN":8627,"Ġatom":8628,"Specific":8629,"Broadcast":8630,"MX":8631,"Ġmerged":8632,"ĠDomain":8633,"KeyEvent":8634,"RESPON":8635,"Unsigned":8636,"ErrorCode":8637,"Beans":8638,"ADING":8639,"999":8640,"Rendering":8641,"Presenter":8642,"Are":8643,"DT":8644,"slot":8645,"getWorld":8646,"ĊĉĉĠĠĠĠĠĠĠ":8647,"Ġcandidate":8648,"celer":8649,"lour":8650,"Ġ19":8651,"Ġcomparator":8652,"PreparedStatement":8653,"....":8654,"LayoutInflater":8655,"getCell":8656,"chemas":8657,"Ġknown":8658,"Ġknow":8659,"Numbers":8660,"Ġfilters":8661,"ĠHttpServletRequest":8662,"tracking":8663,"ĠDialogInterface":8664,"Age":8665,"IME":8666,"Round":8667,"ĠCam":8668,"EventHandler":8669,"Encryption":8670,"';":8671,"Candidate":8672,"DL":8673,"ZERO":8674,"bi":8675,"dataset":8676,"ĊĊĊĠĠĠĠĠĠĠĠĠĠĠ":8677,"environment":8678,"Ġteam":8679,"Ġcertificate":8680,"Ġcourse":8681,"amma":8682,"setIcon":8683,"ĠmethodName":8684,"area":8685,"lastic":8686,"ighbor":8687,"rivilege":8688,"details":8689,"isEnabled":8690,"Ġmail":8691,"ĠTile":8692,"ĠPost":8693,"Commun":8694,"Arn":8695,"čĊĠĠĠĠĠĠ":8696,"findAll":8697,"Ġconverter":8698,"ExecutorService":8699,"oods":8700,"Facet":8701,"Fast":8702,"Med":8703,"æŃ":8704,"Stock":8705,"Ġsuffix":8706,"Ġincrement":8707,"Quantity":8708,"events":8709,"ACCESS":8710,"ĊĠĠĠĠĠĠĠĠĠĠĠĠĉĠĠĠ":8711,"ĠFragment":8712,"400":8713,"IMP":8714,"aut":8715,"ni":8716,"ively":8717,"ĠGr":8718,"ĉĉĉĉĉĉ":8719,"Tracking":8720,"Ġwritten":8721,"(.":8722,"57":8723,"Buff":8724,"City":8725,"ĠBinary":8726,"ĠonSuccess":8727,"Calls":8728,"Projection":8729,"Positions":8730,"ApplicationContext":8731,"Ġ\",\"":8732,"andidates":8733,"Design":8734,"åħ¥":8735,"Credential":8736,"Fn":8737,"Ġspeed":8738,"ĠSingle":8739,"Ġprob":8740,"URN":8741,"Ord":8742,"OrderBy":8743,"Ġvalidator":8744,"getW":8745,"isBlank":8746,"Ġpayment":8747,"Ing":8748,"Instrument":8749,"setB":8750,"addTo":8751,"ters":8752,"htable":8753,"memory":8754,"Ġioe":8755,"Placement":8756,"routing":8757,"è¿ĶåĽŀ":8758,">=":8759,"Framework":8760,"Menus":8761,"æĢ":8762,"();)":8763,"setUn":8764,"ĠSend":8765,"Ġdeployment":8766,"Then":8767,"ĠvalueObject":8768,"Country":8769,"ĠUs":8770,"ientation":8771,"Ġcodec":8772,"Serialization":8773,"bined":8774,"Trust":8775,"NC":8776,"]),":8777,"launch":8778,"setSize":8779,"Ġrecover":8780,"artbe":8781,"Ġprovide":8782,"PropertyDescriptor":8783,"Ġrunner":8784,"Front":8785,"DOUBLE":8786,"Authority":8787,"ĠCharSequence":8788,"BAR":8789,"Clip":8790,"~~":8791,"ç±":8792,"ino":8793,"getGroup":8794,"INSERT":8795,"ĠShape":8796,"Successful":8797,"OutOfBoundsException":8798,"Observable":8799,"catalog":8800,"gp":8801,"icion":8802,"aps":8803,"rediction":8804,"Colors":8805,"atasource":8806,"alytics":8807,"Ġconnected":8808,"DFS":8809,"UiThread":8810,"getCanonical":8811,"DEN":8812,"gs":8813,"need":8814,"Ġĉ":8815,"getJob":8816,"route":8817,"ĠfilePath":8818,"TableModel":8819,"JSONException":8820,"ĠDisplay":8821,"Launcher":8822,"Ġtables":8823,"Ġrhs":8824,"(\"--":8825,"changed":8826,"emy":8827,"ippet":8828,"boot":8829,"{}\",":8830,"customer":8831,"itespace":8832,"ially":8833,"sun":8834,"å¸":8835,"çĤ":8836,"čĊĠĠĠĠĠĠĠĠĠĠĠĠĠ":8837,"RequestParam":8838,"Ġ23":8839,"Ġseparator":8840,"ĠImmutableSet":8841,"Ġapplied":8842,"Own":8843,"SW":8844,"dot":8845,"ij":8846,"overy":8847,"cho":8848,"ĠBatch":8849,"OrCreate":8850,"DIRECT":8851,"ĠlocalVar":8852,"origin":8853,"Ġcompletion":8854,"BLACK":8855,"AF":8856,"Cur":8857,"NEL":8858,"Soft":8859,"duration":8860,"layer":8861,"atial":8862,"Ġ\"&":8863,"Ġmaterial":8864,"Ġ?,":8865,"Allocation":8866,"1024":8867,"Ġzone":8868,"Ġminimum":8869,"Conditions":8870,"ayers":8871,"ĠgetM":8872,"ĠBig":8873,"consumer":8874,"obt":8875,"MethodName":8876,"LOCAL":8877,"AccessToken":8878,"Generation":8879,"SocketAddress":8880,"help":8881,"Ġsupplied":8882,"sys":8883,"zu":8884,"ĠStack":8885,"Ġstudent":8886,"Ġeven":8887,"ĠRed":8888,"Ontology":8889,"bose":8890,"Generate":8891,"Remaining":8892,"Ġhttps":8893,"è¯·":8894,"getSelectedItem":8895,"GORY":8896,"bad":8897,"bine":8898,"ever":8899,"isk":8900,"Integr":8901,"ording":8902,"shake":8903,"Ġtransport":8904,"Terms":8905,"SECOND":8906,"ombre":8907,"ç±»":8908,"pipeline":8909,"erve":8910,"Ġbusiness":8911,"Ġdx":8912,"ĠgetUser":8913,"Quest":8914,"getFull":8915,"ENABLED":8916,"watch":8917,"ĠStore":8918,"Ġfactor":8919,"Ġopt":8920,"Ġgreater":8921,"redirect":8922,"Formula":8923,"CharSequence":8924,"orderBy":8925,"Ġfiltered":8926,"ĠLocalDate":8927,"CLU":8928,"YEAR":8929,"nanoTime":8930,"MY":8931,"mouse":8932,"ĠEnvironment":8933,"ament":8934,"Ġfit":8935,"riate":8936,"TargetException":8937,"errupt":8938,"\"})":8939,"51":8940,"CANCE":8941,"LT":8942,"Pay":8943,"éĿ":8944,"getEndpoint":8945,"Ġ}));":8946,"Ġredirect":8947,"createStatement":8948,"Connections":8949,"ĊĠĠĠĠĠĠĠĠĠĠĠĠĠĠĠĠĠĠĠĠĠĠĠĠĠĠĠĠĠĠĠĠĠĠĠĠĠĠĠĠĠĠĠĠĠĠĠĠĠĠĠĠĠĠĠ":8950,"Ġdisable":8951,"SETTING":8952,"ukkit":8953,"ĠPosition":8954,"Bin":8955,"DER":8956,"efficient":8957,"free":8958,"oric":8959,"getParameters":8960,"definition":8961,"Ġ*=":8962,"Experiment":8963,"ĠPut":8964,"Modify":8965,"Esb":8966,"getNew":8967,"ados":8968,"Increment":8969,"agination":8970,"interval":8971,"Ġtransfer":8972,"ĠExpected":8973,"getResourceAsStream":8974,".\\":8975,"CF":8976,"inv":8977,"getDouble":8978,"ĠFast":8979,"URATION":8980,"Visual":8981,"Ġtransition":8982,"RemoteException":8983,"Ġrenderer":8984,")*":8985,"Letter":8986,"Pe":8987,"css":8988,"Ġil":8989,"Ġcost":8990,"Ġba":8991,"addProperty":8992,"ĠMessages":8993,"ĠPredicate":8994,"resolved":8995,"ĠHas":8996,"Ġaddr":8997,"Ship":8998,"weather":8999,"=\");":9000,"Ur":9001,"Ġdetail":9002,"INTEGER":9003,"indices":9004,"Ġshutdown":9005,"HttpResponse":9006,"Ġedges":9007,"randomUUID":9008,"ĠOnly":9009,"HOST":9010,"çĤ¹":9011,"DN":9012,"]+":9013,"dst":9014,"fmt":9015,"future":9016,"floor":9017,"ĠUnit":9018,"Ġmarshall":9019,"Ġ17":9020,"team":9021,"complet":9022,"ĠVertex":9023,"Clone":9024,"JSONArray":9025,"ucceeded":9026,"operator":9027,"ĊĉĠĠĠĠĉ":9028,"CAP":9029,"OAuth":9030,"binary":9031,"æĮ":9032,"etime":9033,"()\");":9034,"getItems":9035,"extra":9036,"ĠStringWriter":9037,"Ġdepth":9038,"Ġ25":9039,"Defaults":9040,"Ġzoom":9041,"FragmentManager":9042,"contentassist":9043,"Signal":9044,"hn":9045,"Ãı":9046,"asc":9047,"chat":9048,"LEADING":9049,"Ġgeneric":9050,"Initializer":9051,"Anchoring":9052,"ĠIgnite":9053,"mkdirs":9054,"ä¿¡æģ¯":9055,"åīį":9056,"Ġangle":9057,"Student":9058,"otential":9059,"race":9060,"vention":9061,"KeyValue":9062,"Already":9063,"Ġouter":9064,"Ġremaining":9065,"PATTERN":9066,"activate":9067,")/":9068,"PLAY":9069,"payload":9070,"rier":9071,"ĠgetData":9072,"TypeId":9073,"Ġgson":9074,"Disable":9075,"timer":9076,"FEATURE":9077,"Ġfeatures":9078,"Ġimages":9079,"0001":9080,"summary":9081,"OUTPUT":9082,"Ġwaiting":9083,"JLabel":9084,"cached":9085,"direction":9086,"fd":9087,"sib":9088,"getMap":9089,"setBorder":9090,"Ġlater":9091,"Ġhelp":9092,"Ack":9093,"Sys":9094,"ony":9095,"inst":9096,"Align":9097,"<?>)":9098,"PARENT":9099,"ĠwaitFor":9100,"quivalent":9101,"=?":9102,"DY":9103,"ivery":9104,"video":9105,"čĊĠĠĠĠĠĠĠĠĠĠĠĠĠĠĠĠĠĠĠĠĠĠĠĠĠĠĠĠĠĠĠĠĠĠĠ":9106,"getApp":9107,"Ġfact":9108,"Ġfree":9109,"InMillis":9110,"Proposal":9111,"Segments":9112,"LEVEL":9113,"ĠHost":9114,"ĠNBT":9115,"ĠpropertyName":9116,"VoCollection":9117,"OLEAN":9118,"PH":9119,"Pause":9120,"idad":9121,"StringUtil":9122,"aped":9123,"program":9124,"\\\">":9125,"InstanceId":9126,"DEFIN":9127,"ROLL":9128,"Dirty":9129,"anchoringHelper":9130,"æĸ¹":9131,"times":9132,"LDER":9133,"receive":9134,"Cr":9135,"cfg":9136,"ho":9137,"mac":9138,"deploy":9139,"ĠmContext":9140,"price":9141,"Seek":9142,"Handlers":9143,"ĠFileUtils":9144,"EXCE":9145,"ĠClassNotFoundException":9146,"Ġpercent":9147,"Ġmean":9148,"Reporter":9149,"Ġtm":9150,"()]);":9151,"getMetadata":9152,"deprecated":9153,"Ġautomatic":9154,"addElement":9155,"oday":9156,"ounded":9157,"OrEmpty":9158,"Decode":9159,"gression":9160,"Tabs":9161,"Requirement":9162,"atible":9163,"ido":9164,"ĠTr":9165,"Ġisn":9166,"ĠLO":9167,"obot":9168,"Employee":9169,"ĠResponseEntity":9170,"OPEN":9171,"ĠGeo":9172,"Goal":9173,"Gl":9174,"lan":9175,"orth":9176,"anos":9177,"Ġblob":9178,"Ġbits":9179,"Providers":9180,"Keyboard":9181,"TextUtils":9182,"ĠVis":9183,">>()":9184,"ĠConsumer":9185,"SOL":9186,"cheduling":9187,"ĠOR":9188,"delay":9189,"Ġscheme":9190,"ester":9191,"Ġrejected":9192,"ĠjLabel":9193,"Modification":9194,"groupId":9195,"ĠPlatform":9196,"Ġserializer":9197,"Detector":9198,"Slice":9199,"getJSONObject":9200,"Ġcookie":9201,"Ġpc":9202,"aggreg":9203,"andReturn":9204,"proc":9205,"Interpol":9206,"Ġchars":9207,"ropriate":9208,"åĩº":9209,"Observation":9210,"library":9211,"ons":9212,"leased":9213,"rect":9214,"andExpect":9215,"ĠDb":9216,"ConfigurationException":9217,"ĊĠĠĠĠĠĠĠĠĠĠĠĠĠĠĠĠĠĠĠĠĠĠĠĠĠĠĠĠĠĠĠĠĠĠĠĠĠĠĠĠĠ":9218,"Claim":9219,"Ġabove":9220,"=\").":9221,"Needed":9222,"RL":9223,"matrix":9224,"Ã¡":9225,"Ġmapped":9226,"setLocation":9227,"Ġdf":9228,"Maps":9229,"ãģĻ":9230,"resourceGroupName":9231,"Printer":9232,"ĠQName":9233,"ĠPerform":9234,"HORIZ":9235,"Live":9236,"¦ģ":9237,"Ãĸ":9238,"IDENT":9239,"Ġwhose":9240,"127":9241,"ThreadPool":9242,"signature":9243,"(\\\"":9244,"CALL":9245,"icro":9246,"(\":":9247,"chart":9248,"Ġmat":9249,"Ġproper":9250,"parsed":9251,"Recipient":9252,"CharArray":9253,"Activation":9254,"Ġconsider":9255,"OPERATION":9256,"Ser":9257,"gui":9258,"Â½":9259,"peek":9260,"avadoc":9261,"čĊčĊĠĠĠĠĠ":9262,"ĠGson":9263,"Ġattach":9264,"Controls":9265,"stitution":9266,"65":9267,"Pin":9268,"Tmp":9269,"aemon":9270,"getEvent":9271,"perature":9272,"ĠOK":9273,"ĠdataSource":9274,"Ġsepar":9275,"Ġ1024":9276,"SCA":9277,"EditPart":9278,"getOrig":9279,"Scheduled":9280,"GED":9281,"Vol":9282,"nr":9283,"sorted":9284,"trigger":9285,"ving":9286,"(\"//":9287,"Ġ\")\");":9288,"toJson":9289,"ĠBox":9290,"128":9291,"Getter":9292,"ĠorderBy":9293,"Ġexplicit":9294,"Ġprincipal":9295,"restore":9296,"RESPONSE":9297,"HL":9298,"MB":9299,"VID":9300,"wiki":9301,"Ġë":9302,"ĠEnd":9303,"isNotNull":9304,"Arm":9305,"Edition":9306,"Regions":9307,"ĠSequence":9308,"wards":9309,"ĠVALUES":9310,"Ġabsolute":9311,"artbeat":9312,"Hub":9313,"history":9314,"kind":9315,"zure":9316,"}\")":9317,"¦Ĥ":9318,"Ġsel":9319,"Ġinstanti":9320,"ĠSO":9321,"Ġlang":9322,"Ġlib":9323,"ĠCopy":9324,"ĠgetItem":9325,"Ġitself":9326,"ĠaddCriterion":9327,"Projects":9328,"oving":9329,"Serialized":9330,"Capability":9331,"Ġrouting":9332,"Jdbc":9333,"ĊĊĠĠĠĠĠĠĠĠĠĠĠĠĠĠĠĠĠĠĠĠĠĠĠĠĠĠĠĠĠĠĠ":9334,"ĥ½":9335,"Ġcases":9336,"delegate":9337,"Ġthreshold":9338,"(\"'":9339,"unused":9340,"ĠSo":9341,"REST":9342,"cls":9343,"Documents":9344,"ĠlastComparison":9345,"Ġ64":9346,"ãĤĭ":9347,"Article":9348,"ADDRESS":9349,"Ġcamera":9350,"87":9351,"BUI":9352,"tri":9353,"was":9354,"Ġpoll":9355,"apsed":9356,"imator":9357,"ĠTypes":9358,"ĠAR":9359,"Force":9360,"StartTime":9361,"ADMIN":9362,"phab":9363,"Channels":9364,"<>":9365,"Tex":9366,"tec":9367,"uzz":9368,"ÃĤ":9369,"Ġpsi":9370,"Ġmachine":9371,"getCache":9372,"ĠgroupId":9373,"ĠDebug":9374,"ExecutionContext":9375,"PASSWORD":9376,"'.":9377,"DK":9378,"cid":9379,"vector":9380,"Ġturn":9381,"Ġwarning":9382,"FileChooser":9383,"PROCESS":9384,"retty":9385,"executor":9386,"ircuit":9387,"ĠEmpty":9388,"onError":9389,"getK":9390,"Inverse":9391,"chool":9392,"unique":9393,"Ġdictionary":9394,"ĠRole":9395,"rome":9396,"ROLE":9397,"writeTo":9398,"Ġhandled":9399,"EXP":9400,"Ġdestroy":9401,"connected":9402,"RadioButton":9403,"FILTER":9404,"Ġbin":9405,"rowse":9406,"ĠSave":9407,"--)":9408,"ĠLA":9409,"Ġbehavior":9410,"ARGET":9411,"SED":9412,"Ġpointer":9413,"Atomic":9414,"Ġlatest":9415,"ĠFrame":9416,"ONTAL":9417,"Mirror":9418,")\"":9419,"Velocity":9420,"ĊĉĉĉĠĠĠ":9421,"ĠTH":9422,"indent":9423,"ĠLock":9424,"Unary":9425,"].[":9426,"Offsets":9427,"DataSetChanged":9428,"<=":9429,"OVER":9430,"literal":9431,"saved":9432,"Ġcreates":9433,"under":9434,"ĠRange":9435,"opes":9436,"Ġadding":9437,"Backend":9438,"Ġ[{}":9439,"Coordinator":9440,"ApiException":9441,"Fixture":9442,"HexString":9443,"Gradient":9444,"pb":9445,"{\\\"":9446,"å·":9447,"ç§":9448,"Ġtick":9449,"Ġtheme":9450,"Ġprimitive":9451,"setLast":9452,"Profiles":9453,"ĠCategory":9454,"ĠgetType":9455,"Ġhalf":9456,"++,":9457,"Interest":9458,"())))":9459,"Ġnumbers":9460,"black":9461,"dsl":9462,"ographic":9463,"Built":9464,"TT":9465,"pus":9466,"tm":9467,"Ġclip":9468,"Into":9469,"ĠPr":9470,"STY":9471,"ĠFirst":9472,"parseLong":9473,"ĠAssertionError":9474,"Subscribe":9475,"Ġappropriate":9476,"ĠretVal":9477,"Ġphone":9478,"Does":9479,"rb":9480,"sar":9481,"Ġic":9482,"icles":9483,"exchange":9484,"Ġdrag":9485,"Ġrevision":9486,"ĠMult":9487,"lyph":9488,"ITIVE":9489,"ĠRequired":9490,"failure":9491,"æĪ·":9492,"Evaluation":9493,"sqrt":9494,"FC":9495,"Negative":9496,"Scalar":9497,"pd":9498,"pk":9499,"leet":9500,"utf":9501,"selector":9502,"segment":9503,"Ġ\"$":9504,"Ġbus":9505,"imp":9506,"addView":9507,"ĠCurrent":9508,"logging":9509,"poch":9510,"inputStream":9511,"ä¸ĭ":9512,"ainten":9513,"projects":9514,"Ġspan":9515,"ĠArguments":9516,"Low":9517,"MULT":9518,"delet":9519,"addValue":9520,"ĠManagement":9521,"ĠFake":9522,"OrUpdate":9523,"ĠComposite":9524,"ĠZip":9525,"åĲİ":9526,"Ġrepresenting":9527,"Retrie":9528,"helper":9529,"GROUND":9530,"ĠCountDownLatch":9531,"Ġrelationship":9532,"MILLISECONDS":9533,"Aware":9534,"è§":9535,"ĊĊĊĠĠĠ":9536,"Tester":9537,"ĠsetValue":9538,"Parsing":9539,"Ġchecks":9540,"())){":9541,"Windows":9542,"latest":9543,"ĠAuthentication":9544,"2000":9545,"jLabel":9546,"¤º":9547,"çĲ":9548,"čĊĠĠĠĠĠĠĠĠĠĠĠĠĠĠĠĠ":9549,"setParent":9550,"setCell":9551,"ĠTab":9552,"ĠSyn":9553,"ĠgetResources":9554,"Ġhint":9555,"ookies":9556,"čĊĉĉĉĉčĊĉĉĉ":9557,"ĠtargetDepth":9558,"FACE":9559,"Ġpartial":9560,"character":9561,"ExecutionException":9562,"WebView":9563,"Ġsteps":9564,"11111111":9565,"ĠAggreg":9566,"getCluster":9567,"SCHEMA":9568,"Balance":9569,"Dim":9570,"effect":9571,"ĠåĪ":9572,"terms":9573,"ĠInvocation":9574,"2015":9575,"ĠStop":9576,"Ġexpand":9577,"ios":9578,"pan":9579,"registry":9580,"elist":9581,"Ġmany":9582,"Ġden":9583,"Ġlight":9584,"Ġdeli":9585,"Possible":9586,"ucene":9587,"Alive":9588,"Balancer":9589,"Keeper":9590,"buff":9591,"bitmap":9592,"fine":9593,"grees":9594,"Ġcop":9595,"Ġmult":9596,"ĠgetContext":9597,"ĠNow":9598,"Servers":9599,"flatMap":9600,"Coordinates":9601,"bounds":9602,"getShort":9603,"isNotBlank":9604,"Wiki":9605,"pid":9606,"Â·":9607,"Ġss":9608,"aph":9609,"Thing":9610,"Shutdown":9611,"getDimension":9612,"Ġrestore":9613,"MISSION":9614,"Ġauthorization":9615,"ĠSerializable":9616,"COMMENT":9617,"pisode":9618,"92":9619,"Ax":9620,"FULL":9621,"oval":9622,"()>":9623,"getElements":9624,"Concurrent":9625,"Ġreferences":9626,"Ġproc":9627,"Ġstatistics":9628,"REA":9629,"Attack":9630,"ynomial":9631,"LOB":9632,"policy":9633,"Capabilities":9634,"0000000000000000":9635,"avorite":9636,"########":9637,"Lifecycle":9638,"CD":9639,"æŁ¥":9640,"Ġte":9641,"istent":9642,"external":9643,"Ġhist":9644,"ĠMutable":9645,"Ġiv":9646,"Deleg":9647,"FieldValue":9648,"ĠCondition":9649,"DISP":9650,"Ġ80":9651,"SOAP":9652,"Structural":9653,"clusion":9654,"DESCRIPTION":9655,"Ġrotation":9656,"SPECI":9657,"Ġbelow":9658,"63":9659,"Ct":9660,"COR":9661,"]/":9662,"border":9663,"è±":9664,"Ġpatch":9665,"ategor":9666,"ĠPreparedStatement":9667,"åĲ¦":9668,"EncodingException":9669,"CHANNEL":9670,"ĠPartition":9671,"Cnt":9672,"čĊĠĠĠĠĠĠĠĠĠĠĠĠĠĠ":9673,"getNamespace":9674,"isor":9675,"Ġrefer":9676,"ĠLook":9677,"Ġdeploy":9678,"aches":9679,"Party":9680,"MAIL":9681,"Accounts":9682,"crease":9683,"beginTransaction":9684,"Ġcorrectly":9685,"æ³ķ":9686,"çĲĨ":9687,"Fin":9688,"wc":9689,"appers":9690,"ecast":9691,"HttpRequest":9692,"booleanValue":9693,"Ġprojection":9694,"virt":9695,"ãĤ¹":9696,"ĠOne":9697,"ĠCallable":9698,"rotate":9699,"Led":9700,"Try":9701,"è¾":9702,"():":9703,"identity":9704,"Instant":9705,"Ġobserver":9706,"Ġaff":9707,"ItemClickListener":9708,"OnUiThread":9709,"hasSize":9710,"SearchCriteria":9711,"Persistent":9712,"Membership":9713,"ITERAL":9714,"ĠCompletableFuture":9715,"JOptionPane":9716,"WL":9717,"iom":9718,"oized":9719,"rf":9720,"uel":9721,"ÃŃ":9722,"ä¹":9723,"Ġtrim":9724,"Ġ}\\":9725,"Ġcloud":9726,"setAction":9727,"Containing":9728,"ĠGui":9729,"ĠOut":9730,"150":9731,"Ġasset":9732,"Ġassigned":9733,"modified":9734,"Swing":9735,"100000":9736,"Calculator":9737,"STYLE":9738,"CY":9739,"LATE":9740,"NI":9741,"dig":9742,"marshal":9743,"Ñı":9744,"ato":9745,"anisation":9746,"istr":9747,"setTag":9748,"Ġlet":9749,"Toggle":9750,"ĠGu":9751,"ArrayOf":9752,"Interpreter":9753,"behavior":9754,"Ġdisabled":9755,"Ġformatter":9756,"Locked":9757,"Ġexecuted":9758,"Ġunderlying":9759,"è±¡":9760,"EQUAL":9761,"ĠFormat":9762,"getDisplay":9763,"Ġsink":9764,"Ġvec":9765,"ĠTry":9766,"IsMutable":9767,"soap":9768,"Ġcompiler":9769,"ACTIVE":9770,"Verifier":9771,"Ġaccording":9772,"+=":9773,"Categories":9774,"Spe":9775,"criteria":9776,"âĶ":9777,"ç¼":9778,"getOut":9779,"Conversation":9780,"Ġdummy":9781,"Ġaws":9782,"Ġaudit":9783,"ĠgetResource":9784,"[],":9785,"ivo":9786,"čĊčĊĉĉĉĉ":9787,"ATCH":9788,"ToolTip":9789,"methodName":9790,"Annotated":9791,"cii":9792,"ĠGraphics":9793,"Ġdependency":9794,"Slider":9795,"PM":9796,"fra":9797,"Â¿":9798,"getIcon":9799,"getEmail":9800,"getExternal":9801,"Ġbroker":9802,"ĠgetView":9803,"Ġassertion":9804,"ATER":9805,"calendar":9806,"NAMESPACE":9807,"Delivery":9808,"Ġ500":9809,"ACCOUNT":9810,"Boundary":9811,"('\\":9812,"elementAt":9813,"NORMAL":9814,"HORIZONTAL":9815,"Ranges":9816,"native":9817,"łģ":9818,"Ġcos":9819,"asset":9820,"updated":9821,"čĊĉĠĠĠĠĠĠĠ":9822,"StreamException":9823,"backtracking":9824,"Ġattachment":9825,"Ġtexture":9826,"month":9827,"running":9828,"Related":9829,"Ġsignal":9830,"Aggregate":9831,"Ġagainst":9832,"CATEGORY":9833,"HS":9834,"Opa":9835,"RY":9836,"va":9837,"Ĺãģ":9838,"Ġ=>":9839,"apon":9840,"Ġseed":9841,"Interfaces":9842,"Ġadjust":9843,"ĠoldValue":9844,"ENDING":9845,"ĠCallback":9846,"ĠLevel":9847,"CANCEL":9848,"\"},":9849,"Hits":9850,"VATE":9851,"oji":9852,"cher":9853,"Ġoptim":9854,"addParameter":9855,"Ġhome":9856,"ĠInsert":9857,"getAccount":9858,"Ġauthentic":9859,"commands":9860,"MEN":9861,"Polygon":9862,"rules":9863,"Ã£":9864,"getLeft":9865,"icense":9866,"ĊĉĠĠ":9867,"Ġthose":9868,"Ġpkg":9869,"setD":9870,"Ġstates":9871,"ĠJS":9872,"DEF":9873,"ĠConcurrent":9874,"Called":9875,"ĠSharedPreferences":9876,"ĠPreference":9877,"Ġgraphics":9878,"čĊĠĠĠĠĠĠĠĠĠĠĠĠĠĠĠĠĠĠĠĠĠĠĠĠĠĠĠĠĠĠĠĠĠĠĠĠĠĠĠ":9879,"ĠQueue":9880,"getRuntime":9881,"isS":9882,"(\"@":9883,"setOutput":9884,"scanner":9885,"Ġpositive":9886,"Ġhandling":9887,"drawString":9888,"Minimum":9889,"getRaw":9890,"White":9891,"remaining":9892,"å¤±":9893,"Percentage":9894,":\\\"":9895,"Average":9896,"FUN":9897,"dv":9898,"Â¡":9899,"Ġer":9900,"ĠSSL":9901,"forward":9902,"RET":9903,"ĠVk":9904,"Packages":9905,"ĠoutputStream":9906,"seek":9907,"CONNECT":9908,"enger":9909,"ĊĉĠĠĠĠĠ":9910,"ĠnewBuilder":9911,"unct":9912,"Ġrequires":9913,"ĠAWS":9914,"ĠMouse":9915,"enge":9916,"ErrorException":9917,"AdapterView":9918,"Expand":9919,"getUsername":9920,"havi":9921,"Small":9922,"å½ķ":9923,"getSystemService":9924,"^^":9925,"sIn":9926,"getFrom":9927,"Ġ\"@":9928,"quot":9929,"čĊĉĠ":9930,"toCharArray":9931,"atting":9932,"Recovery":9933,"Ġcalc":9934,"Ġsummary":9935,"ĠHTML":9936,"å¼ı":9937,"positories":9938,"ĠSup":9939,"Ġhex":9940,"STORE":9941,"Album":9942,"ĠComparator":9943,"Ġemit":9944,"transport":9945,"Enumeration":9946,"Router":9947,"ĠAttributes":9948,"receiver":9949,"ç¬¦":9950,"SequentialGroup":9951,"ASC":9952,"Pa":9953,"rm":9954,"Ð»":9955,"çº":9956,"inate":9957,"getRegion":9958,"getUuid":9959,"reet":9960,"integer":9961,"SEARCH":9962,"ĠEasyMock":9963,"ä¸Ĭ":9964,"HEIGHT":9965,"Freq":9966,"IE":9967,"au":9968,"Ġable":9969,"added":9970,"Ġdump":9971,"ĠSTR":9972,"Ġhide":9973,"Setter":9974,"ĠWait":9975,"fromJson":9976,"alyze":9977,"vides":9978,"Diagram":9979,"GT":9980,"populate":9981,"ÃĪ":9982,"STOP":9983,"Requested":9984,"ĠGoogle":9985,"Starting":9986,"EndPoint":9987,"NOTE":9988,"ĠClassLoader":9989,"TIMESTAMP":9990,"Deserializer":9991,"ĠAdapter":9992,"æİ¥":9993,"Ġuid":9994,"alette":9995,"oral":9996,"getPlugin":9997,"reverse":9998,"idence":9999,"ptr":10000,"ĠBook":10001,"ĠonItem":10002,"TextArea":10003,"Allocator":10004,"Dispatch":10005,"ĠPlan":10006,"åıĳ":10007,"Black":10008,"Ġoperand":10009,"getContentPane":10010,"Histogram":10011,"multiply":10012,"ĠConstructs":10013,"Hibernate":10014,"PUB":10015,"Song":10016,"dm":10017,"Ġcnt":10018,"Ġsensor":10019,"Ġimpl":10020,"Coder":10021,"Ġtracker":10022,"ĠAuthor":10023,"POSITION":10024,"Mobile":10025,"QUIRED":10026,"93":10027,"Dummy":10028,"Hour":10029,"Optim":10030,"bat":10031,"éĶ":10032,"utter":10033,"InBackground":10034,"Ġ00":10035,"oost":10036,"Ġlhs":10037,"Resp":10038,"ĠuserName":10039,"getPassword":10040,"SHOW":10041,"Ġcoordinates":10042,"CHANGE":10043,"ingerprint":10044,"levant":10045,"Hidden":10046,"mount":10047,"ende":10048,"Ġincoming":10049,"ounce":10050,"ĠBad":10051,"Dep":10052,"NotSupported":10053,"Quota":10054,"ssl":10055,"createSequentialGroup":10056,"ANY":10057,"Checkpoint":10058,"Players":10059,"deserialize":10060,"capacity":10061,"ĠOperator":10062,"ĠEdge":10063,"getProcess":10064,"Ġpadding":10065,"utures":10066,"ĠgetContent":10067,"ocial":10068,"čĊĉĉĠĠĠ":10069,"Statistic":10070,"StackSize":10071,"EXEC":10072,"ĠHttpResponse":10073,"renderer":10074,")}.":10075,"={":10076,"GreaterThan":10077,"tuple":10078,"stub":10079,"Ġcm":10080,"Ġlatch":10081,"ĠDat":10082,"Translate":10083,"Ġactually":10084,"EXCEPTION":10085,"aintenance":10086,"Fs":10087,"rp":10088,"yl":10089,"å¹":10090,"etched":10091,"getChannel":10092,"Ġssl":10093,"Ġmob":10094,"ĠSk":10095,"ĠPending":10096,"Dead":10097,"Ġchat":10098,"UserName":10099,"ROP":10100,"tasks":10101,"CoreConstants":10102,"commend":10103,"$$":10104,"SN":10105,"pixel":10106,"zoom":10107,"Ġmo":10108,"toBytes":10109,"ĠMove":10110,"ĠisValid":10111,"ĠPaged":10112,"ĠJoin":10113,"Streams":10114,"Individual":10115,"secret":10116,"course":10117,"Ã¤":10118,"inject":10119,"Ġmi":10120,"Ġinventory":10121,"Ġletter":10122,"ĠClose":10123,"Ġconsole":10124,"ĠonFailure":10125,"ElementType":10126,"anning":10127,"ensit":10128,"Ġpairs":10129,"ĠVirtualFile":10130,"Ġretrieved":10131,"ĠAnaly":10132,"TARGET":10133,"cause":10134,"dto":10135,"priority":10136,"vn":10137,"xtext":10138,"ĠCont":10139,"orph":10140,"Invok":10141,"ĠgetP":10142,"Envelope":10143,"ViewGroup":10144,"ĠonError":10145,"Queries":10146,"Shader":10147,"Altern":10148,"ĠSelection":10149,"Ġwriting":10150,"CLE":10151,"DAT":10152,"bg":10153,"ipt":10154,"è¦ģ":10155,"ĠValidate":10156,"ergy":10157,"Ġjs":10158,"pacing":10159,"redient":10160,"ĠNon":10161,"filePath":10162,"Ġlogic":10163,"Ġsubscriber":10164,"ĠTestCase":10165,"Iteration":10166,"Coverage":10167,"Ġlocator":10168,"Ġserialized":10169,"Pixels":10170,"auses":10171,"attery":10172,":/":10173,"MARY":10174,"getLevel":10175,"repaint":10176,"ances":10177,"icode":10178,"Ġsleep":10179,"sell":10180,"setUp":10181,"ĠSm":10182,"ĠgetTest":10183,"))));":10184,"Ġanch":10185,"anceled":10186,"Campaign":10187,"ĠTreeMap":10188,"Ġlonger":10189,"LINK":10190,"Updater":10191,"ĠOtherwise":10192,"?\"":10193,"Gravity":10194,"UAL":10195,"Wizard":10196,"pred":10197,"getContainer":10198,"Ġcity":10199,"Ġbrowser":10200,"ĠStringUtil":10201,"Ġlive":10202,"čĊĉĠĠĠĠ":10203,"eces":10204,"heel":10205,"Undo":10206,"ĠdataSet":10207,"validation":10208,"Ġleaf":10209,"Ġassume":10210,"ĠMetric":10211,"normalize":10212,"Referral":10213,"ï¿½ï¿½":10214,"åĢ¼":10215,"Br":10216,"Rating":10217,"_(":10218,"sFactoryImpl":10219,"Ãĵ":10220,"çłģ":10221,"stage":10222,"ĠassertSame":10223,"Ġ22":10224,"SESSION":10225,"undles":10226,"Logs":10227,"workspace":10228,"Ġtranslate":10229,"ĠLogin":10230,"ParentElement":10231,"Signed":10232,"TileEntity":10233,"styleable":10234,"AUTO":10235,"ĠTrack":10236,"LinkedList":10237,"rer":10238,"æ±":10239,"Ġpop":10240,"Ġrank":10241,"ĠHtml":10242,"argument":10243,"FICATION":10244,"ĠIllegalAccessException":10245,"Editing":10246,"earest":10247,"FERENCE":10248,"SIGNED":10249,"Cross":10250,"Capture":10251,"Gene":10252,"Sprite":10253,"Templates":10254,"eINSTANCE":10255,"etSocketAddress":10256,"orian":10257,"getOffset":10258,"edString":10259,"unnel":10260,"ĠĠĠĠĠĠĠĠĠĠĠĠĠĠĠĠĠ":10261,"ĠHive":10262,"structure":10263,"Usuario":10264,"tecode":10265,"Singleton":10266,"hy":10267,"eto":10268,"Ġmc":10269,"setF":10270,"ListAdapter":10271,"andatory":10272,"endObject":10273,"ĠMotionEvent":10274,"TestUtil":10275,"INTERNAL":10276,"ĠLo":10277,"velop":10278,"Ġpreview":10279,"Ġtargets":10280,"countDown":10281,"transfer":10282,"ĠModelAndView":10283,"ACKAGE":10284,"Ċĉĉĉĉĉĉĉĉĉĉĉ":10285,"Replication":10286,"Aff":10287,"none":10288,"sBy":10289,"ĠUrl":10290,"Ġtf":10291,"getInteger":10292,"reason":10293,"recover":10294,"urer":10295,"dep":10296,"deli":10297,"Instanti":10298,"Ġwatch":10299,"period":10300,"ENG":10301,"Online":10302,"disconnect":10303,"BOX":10304,"ĠfeatureID":10305,"enchmark":10306,"Watcher":10307,"ĠMenuItem":10308,"éĿ¢":10309,"Ġautomatically":10310,",\\\"":10311,"67":10312,"Dict":10313,"Dump":10314,"HAND":10315,"OO":10316,"Ãİ":10317,"ĠčĊĉĉ":10318,"getNumberOf":10319,"Ġsf":10320,"STRE":10321,"loading":10322,"ĠReader":10323,"Calc":10324,"ĠContentValues":10325,"getUnique":10326,"Availability":10327,"incrementAndGet":10328,"Git":10329,"IES":10330,"Lab":10331,"balance":10332,"ye":10333,"yml":10334,"§ĭ":10335,"Ġmid":10336,"oler":10337,"setSource":10338,"Ġgetting":10339,"ĠDown":10340,"Scenario":10341,"findElement":10342,"drawLine":10343,"getOwner":10344,"Ġrelated":10345,"Ġcleanup":10346,"Ġdirectly":10347,"ĠFIX":10348,"ĠRoute":10349,"Grammar":10350,"Piece":10351,"iam":10352,"xt":10353,"Invoke":10354,"istency":10355,"Ġmac":10356,"Prof":10357,"ĠSn":10358,"Ġliteral":10359,"aken":10360,"aking":10361,"REP":10362,"Ġimp":10363,"Ġconfirm":10364,"Ġaccessor":10365,"Ġdeserialize":10366,"Aggregator":10367,"ĠTimer":10368,"JOB":10369,"bf":10370,"ĠON":10371,"getI":10372,"(\"(":10373,"Inspector":10374,"anger":10375,"shift":10376,"ĠFileWriter":10377,"RecognitionException":10378,"Ġalarm":10379,"BufferSize":10380,"regorian":10381,"Ġinitialization":10382,"ĠShow":10383,"getLat":10384,"ĊĠĠĠĠĉĊĠĠĠĠ":10385,"Ġapplies":10386,"VARI":10387,"DOCUMENT":10388,"FLOAT":10389,"YES":10390,"sal":10391,"unmarshall":10392,"ĠSchedule":10393,"ĠDuration":10394,"PathVariable":10395,"Charsets":10396,"IsSet":10397,"Ġordered":10398,"ĠExternal":10399,"Ġquick":10400,"MINUTE":10401,"åĬ¡":10402,"Absent":10403,"Lazy":10404,"isInstance":10405,"ĠSample":10406,"ĠgetB":10407,"Overrid":10408,"ONENT":10409,"ALI":10410,"ĠVec":10411,"ĠerrorMessage":10412,"Feel":10413,"Shards":10414,"PRIVATE":10415,"LessThan":10416,"94":10417,"cestor":10418,"iqu":10419,"getEntry":10420,"getReference":10421,"Ġsq":10422,"ĠOAuth":10423,"Ġimmediate":10424,"Expressions":10425,"Addresses":10426,"getBack":10427,"getDraw":10428,"grad":10429,"ãĥĪ":10430,"ĠCOL":10431,"PullParser":10432,".\";":10433,":</":10434,"CN":10435,"DR":10436,"Fraction":10437,"None":10438,"cert":10439,"èİ·åıĸ":10440,"ana":10441,"interrupt":10442,"Ġmanaged":10443,"Proc":10444,"ĠLE":10445,"ElementTypes":10446,"coll":10447,"Recording":10448,"Urls":10449,"jsonObject":10450,"Patterns":10451,"ĠPaths":10452,"bedPane":10453,"COMMAND":10454,"è´¥":10455,"å¤±è´¥":10456,"-\"":10457,"MARK":10458,"mic":10459,"may":10460,"getControl":10461,"ĊĉĉĠĠĠĠ":10462,"Ġrm":10463,"Repeat":10464,"LET":10465,"ĠFA":10466,"ĠSystemException":10467,"AndSet":10468,"ĠcheckNotNull":10469,"2013":10470,"getBuild":10471,"Ġsecret":10472,"Physical":10473,"åĪĨ":10474,"graphics":10475,"GeneratedMessage":10476,"čĊĠĠĠĠĠĠĠĠĠĠĠĠčĊĠĠĠĠĠĠĠĠĠĠĠ":10477,"VIDER":10478,"'\");":10479,"Aut":10480,"LF":10481,"[\"":10482,"dump":10483,"Â£":10484,"æĽ":10485,"Ġom":10486,"getJava":10487,"anism":10488,"ObjectType":10489,"ĠĠĠĠĠĠĠĠĠĠĠĠĠĠĠĠĠĠĠĠ":10490,"Ġorganization":10491,"Readable":10492,"Portal":10493,"redicates":10494,"åıĤ":10495,"Partitions":10496,"Ġtransformer":10497,"git":10498,"hl":10499,"(\"*":10500,"Ġear":10501,"002":10502,"ĠDesc":10503,"contract":10504,"Ġtrying":10505,"Transformation":10506,"Ġupd":10507,"contextMenu":10508,"ĊĠĠĠĠĠĠĠĠĠĠĠĠĠĠĠĠĠĠĠĠĠĠĠĠĠĠĠĠĠĠĠĠĠĠĠĠĠĠĠĠĠĠĠĠĠ":10509,"Roots":10510,"DBObject":10511,"ĠProfile":10512,"Ġquote":10513,"getAttributeValue":10514,"Ġ\"]\");":10515,"Solr":10516,"audit":10517,"uation":10518,"xsd":10519,"Ġesc":10520,"ŀĭ":10521,"Ġcat":10522,"Ġpress":10523,"Ġ\"*":10524,"ĠSymbol":10525,"osen":10526,"REEN":10527,"Ġ'/":10528,"AndFeel":10529,"Ġpref":10530,"Ġprevent":10531,"filtered":10532,"front":10533,"ĠpackageName":10534,"ĠInitialize":10535,"ĠSignature":10536,"constraints":10537,"Cms":10538,"SUP":10539,"Sizes":10540,"Square":10541,"fw":10542,"nc":10543,"getWriter":10544,"oda":10545,"ĠgetProperty":10546,"ToBe":10547,"ĠMo":10548,"ĠDynamic":10549,"ĠPy":10550,"Ġconversion":10551,"Quote":10552,"Ġanalysis":10553,"Apps":10554,"MPLE":10555,"Ġmatched":10556,"dispatch":10557,"csv":10558,"Ġmaybe":10559,"ĠCustomer":10560,"INTERVAL":10561,"Exactly":10562,"losest":10563,"scheme":10564,"setKey":10565,"Ġlv":10566,"ĠCms":10567,"Encode":10568,"FileNotFoundException":10569,"ĠInd":10570,"attle":10571,"veloper":10572,"Decision":10573,"Executors":10574,"getUserId":10575,"Ġ128":10576,"Ġrestart":10577,"FINE":10578,"SCO":10579,"audio":10580,"å±":10581,"ĠORDER":10582,"getValues":10583,"Ġ\"#":10584,"setT":10585,"Ġlarge":10586,"ĠgetFile":10587,"percent":10588,"Ġconsum":10589,"rivacy":10590,"ĠFileNotFoundException":10591,"MethodException":10592,"NOTI":10593,"generator":10594,"FailedException":10595,"ĠRelation":10596,"reatment":10597,"ancy":10598,"ĠTransformer":10599,"Ġregistration":10600,"éĹ´":10601,"¦Ĥæŀľ":10602,"GP":10603,"WHERE":10604,"ÂĤ":10605,"Ð²":10606,"orr":10607,"standard":10608,"upper":10609,"ĠAb":10610,"ooled":10611,"ĠDes":10612,"ĠDirectory":10613,"ĠFileReader":10614,"dataSource":10615,"Ġpreference":10616,"Ġclasspath":10617,"Ġclause":10618,"Searcher":10619,"åĬŁ":10620,"Bindings":10621,"ĠAtomicInteger":10622,"obtain":10623,"Bid":10624,"Â²":10625,"Ġpur":10626,"Ġpid":10627,"cha":10628,"setChecked":10629,"peer":10630,"There":10631,"RESH":10632,"ĠGUI":10633,"rupt":10634,"ĠWrit":10635,"rawtypes":10636,"Configurations":10637,"erialized":10638,"Ġcompile":10639,")+":10640,"Air":10641,"SG":10642,"best":10643,"ìĿ":10644,"ama":10645,"Ġdot":10646,"ĠMan":10647,"Ġexperiment":10648,"ivot":10649,"Ġcomposite":10650,"constructor":10651,"ItemType":10652,"ĠGen":10653,"Arrow":10654,"archar":10655,"Precision":10656,"Ġiteration":10657,"interface":10658,"ãĢģ":10659,"å¯¹è±¡":10660,"EE":10661,"Poly":10662,"Sym":10663,"pkg":10664,"Â¸":10665,"èĥ½":10666,"getDe":10667,"setForeground":10668,"Ġopts":10669,"Ġincluded":10670,"resultSet":10671,"getPr":10672,"getFont":10673,"IGINT":10674,"Ġetc":10675,"alformedURL":10676,"Hard":10677,"Large":10678,"TC":10679,"measure":10680,"åŀĭ":10681,"getTimestamp":10682,"ĊĉĊ":10683,"loom":10684,"setWidth":10685,"romos":10686,"Adjust":10687,"DEP":10688,"ĠThen":10689,"minus":10690,"getPh":10691,"blue":10692,"ĠOptions":10693,"Facing":10694,"Tipo":10695,"alformedURLException":10696,"\"};":10697,"Footer":10698,"Mer":10699,"RGB":10700,"Ġser":10701,"ĠSem":10702,"REE":10703,"share":10704,"UTC":10705,"getMain":10706,"Characters":10707,"USTOM":10708,"Production":10709,"&#":10710,"]]":10711,"hook":10712,"mult":10713,"sFor":10714,"Ġpower":10715,"licable":10716,"Ġ\"\\\\":10717,"NameValuePair":10718,"ĠgetParent":10719,"PathParam":10720,"ĠGit":10721,"COD":10722,"ĊĠĠĠĠĠĠĠĠĠĠĠĠĠĠĠĠĠĠĠĠĠĠĠĠĠĠĠĠĠĠĠĠĠĠĠĠĠĠĠĠĠĠĠĠĠĠ":10723,"Submission":10724,"Tooltip":10725,"Ifc":10726,"Ġencoder":10727,"Ġlinks":10728,"confirm":10729,"Ġterms":10730,"grammarAccess":10731,"62":10732,"RG":10733,"nio":10734,"Ã§":10735,"ĠEndpoint":10736,"ina":10737,"elContext":10738,"associ":10739,"setStyle":10740,"ĠSim":10741,"Ġfore":10742,"Ġ21":10743,"ĠNUM":10744,"Logical":10745,"strings":10746,"ParameterValue":10747,"Filtered":10748,"Fluid":10749,"BOT":10750,"ProgressBar":10751,"ĠServiceResponse":10752,"ĠWorkflow":10753,"BufferedReader":10754,"').":10755,"300":10756,"Marshall":10757,"SB":10758,"itles":10759,"Ġsig":10760,"Ġdays":10761,"Ġins":10762,"ĠjPanel":10763,"ByTag":10764,"Seed":10765,"appendChild":10766,"ipes":10767,"Ġcollector":10768,"worker":10769,"LAST":10770,"ĠcompareTo":10771,"Dimensions":10772,"ĠgridBagConstraints":10773,"MODEL":10774,"Ġmanifest":10775,"CONNECTION":10776,"SEND":10777,"nested":10778,"Â¾":10779,"å§ĭ":10780,"student":10781,"getOutputStream":10782,"Ġsources":10783,"Ġmv":10784,"Ġconsume":10785,"ĠLanguage":10786,"ĠĠĠĠĠĠĠĠĠĠĠĠĠĠĠĠĠĠĠĠĠĠĠĠĠĠĠ":10787,"Ġchaining":10788,"Interaction":10789,"Ġstarts":10790,"Ġweather":10791,"Checks":10792,"ĠXPath":10793,"LISH":10794,"PROD":10795,"xmlbeans":10796,"pending":10797,"ĠJSONException":10798,"WEB":10799,"ÂµÃĦ":10800,"ĠLayoutInflater":10801,"åŃĹç¬¦":10802,"82":10803,"Cart":10804,"RULE":10805,"Ġcurrency":10806,"ĠCH":10807,"Ġintegr":10808,"spect":10809,"ĠDataType":10810,"Markup":10811,"ĠINT":10812,"NativeType":10813,"WAY":10814,"Matr":10815,"LIMIT":10816,"@@":10817,"Duplicate":10818,"Fit":10819,"Js":10820,"Spawn":10821,"Ã±":10822,"getCommand":10823,"depth":10824,"ĊĉĉĉĉĊĉĉ":10825,"pline":10826,"ĠFeed":10827,"geo":10828,"startTime":10829,"StartElement":10830,"formatter":10831,"white":10832,"JsonUnmarshaller":10833,"Outcome":10834,"ĠwriteTo":10835,"SQLite":10836,"compound":10837,"lapsed":10838,"notifyDataSetChanged":10839,"auge":10840,"ĠPacket":10841,"rotation":10842,"hasMoreElements":10843,")==":10844,"69":10845,"given":10846,"missing":10847,"plot":10848,"tick":10849,"getTo":10850,"getOrder":10851,"anim":10852,"Ġcd":10853,"Ġgbc":10854,"ĠHibernate":10855,"Ġadds":10856,"ĠNAME":10857,"writeValue":10858,"pointer":10859,"azel":10860,"BOOLEAN":10861,"Callbacks":10862,"persistence":10863,"ä¸Ģä¸ª":10864,"quipment":10865,"ĠArtifact":10866,"GC":10867,"las":10868,"ĠResources":10869,"erator":10870,"esis":10871,"quis":10872,"Idle":10873,"ĠgetMax":10874,"***":10875,"Ġconcept":10876,"ĊĠĠĠĠĠĠĠĠĠĠĠĠĊĠĠĠĠĠĠĠ":10877,"AttributeValue":10878,"ColumnName":10879,"UNIT":10880,"getRight":10881,"Authorized":10882,"Ledger":10883,"RP":10884,"focus":10885,"ih":10886,"ĊĉĉĠĠĠĠĠĠĠĠ":10887,"ida":10888,"Inc":10889,"assignment":10890,"Replic":10891,"QueryParam":10892,"Prev":10893,"HttpStatus":10894,"Ġparticipant":10895,"RIPT":10896,"Building":10897,"Ġphase":10898,"setContentType":10899,"virtual":10900,"Hot":10901,"Pt":10902,"Pick":10903,"Turn":10904,"[(":10905,"jpg":10906,"addMessage":10907,"ĠSET":10908,"toHexString":10909,"allenge":10910,"ĠDoc":10911,"ĠPo":10912,"Ġpara":10913,"Ġ'{}":10914,"Logged":10915,"../":10916,"ributor":10917,"Ġenough":10918,"locations":10919,"Ġcountry":10920,"ĠExample":10921,"Manage":10922,"small":10923,"ĠMember":10924,"çĶ¨æĪ·":10925,"PrimaryKey":10926,"Devices":10927,"SUM":10928,"VED":10929,"uages":10930,"will":10931,"xs":10932,"»º":10933,"ĊĠĠĠĠĉĉĉ":10934,"Ġclock":10935,"ulse":10936,"Ġpk":10937,"agram":10938,"ListItem":10939,"INDO":10940,"Ġdead":10941,"ĠInstanti":10942,"userName":10943,"Arc":10944,"Ġlogging":10945,"tests":10946,"contextMenus":10947,"Ġmodification":10948,"Ġmemoized":10949,"STRUCT":10950,"ĠxmlWriter":10951,"BitSet":10952,"wrapped":10953,"Injection":10954,"Ġarchive":10955,"Lexer":10956,"(__":10957,"LITERAL":10958,"Mix":10959,"RM":10960,"Saved":10961,"[@":10962,"ners":10963,"ç¨":10964,"ora":10965,"Ġ{\",":10966,"Ġcn":10967,"addGap":10968,"ĠObjectMapper":10969,"Ġseek":10970,"spinner":10971,"Checksum":10972,"EDIT":10973,"SCREEN":10974,"WRAP":10975,"NotSupportedException":10976,"UC":10977,"follow":10978,"ulate":10979,"Ġpages":10980,"iding":10981,"Ġrv":10982,"Ġ\"\")":10983,"Ġgets":10984,"ĠPaint":10985,"ViewModel":10986,"TestData":10987,"problem":10988,"ĠendTime":10989,"ĠConstraint":10990,"Initialization":10991,"Ġcells":10992,"CSV":10993,"12345678":10994,"mid":10995,"wl":10996,"rew":10997,"regist":10998,"ĠTrue":10999,"ĠassertArrayEquals":11000,"fast":11001,"createNew":11002,"ĠNames":11003,"listFiles":11004,"Ġchecking":11005,"duction":11006,"LinearLayout":11007,"OptionsMenu":11008,"ĠbuilderForValue":11009,"FFFF":11010,"ĠTransport":11011,"ĠexecutionContext":11012,"Written":11013,"Sentence":11014,";)":11015,"Music":11016,"business":11017,"cookie":11018,"ares":11019,"ĊĉĉĠĠ":11020,"Ġmade":11021,"Construct":11022,"Ġreload":11023,"izations":11024,"ialect":11025,"Ġcontained":11026,"RequestException":11027,"Streaming":11028,"ĠdataType":11029,"Aspect":11030,"Refs":11031,"Money":11032,"NET":11033,"Responses":11034,"isFile":11035,"isActive":11036,"edBy":11037,"Ġsi":11038,"tegers":11039,"Least":11040,"Ġunexpected":11041,"setTextColor":11042,"ĠcolumnName":11043,"Ġanything":11044,"Ġassum":11045,"ĠBlockPos":11046,"ĠActive":11047,"Ġarticle":11048,"Movement":11049,"Ġresponses":11050,"CAT":11051,"uv":11052,"volume":11053,"ĉĊĉ":11054,"getBy":11055,"Ġbug":11056,"ĠIC":11057,"ĠaddProperty":11058,"Leader":11059,"boBox":11060,"getPrimary":11061,"Ġ[(.":11062,"contents":11063,"Ġreferenced":11064,"anchor":11065,"Ġxmlns":11066,"getItemId":11067,"Ġappear":11068,"acesContext":11069,"Ġdependencies":11070,"RECORD":11071,"DP":11072,"LER":11073,"Py":11074,"Ts":11075,"capture":11076,"mis":11077,"encoded":11078,"uber":11079,"Ġbi":11080,"quote":11081,"uspend":11082,"Ġlif":11083,"ĠgetText":11084,"INVISIBLE":11085,"ĠNative":11086,"preferences":11087,"Ġweek":11088,"PED":11089,"coin":11090,"ensure":11091,"NotificationImpl":11092,"Ġdocuments":11093,"viation":11094,"expand":11095,"Ġimplemented":11096,"gridy":11097,"Delayed":11098,"ĠSpring":11099,"Injector":11100,"ĠHandle":11101,"OFFSET":11102,"Buffers":11103,"71":11104,"84":11105,"DM":11106,"ĠIdentity":11107,"getStyle":11108,"getRemote":11109,"Ġpb":11110,"agger":11111,"ĠSync":11112,"BuilderFactory":11113,"ĠFunc":11114,"OfWeek":11115,"Ġshadow":11116,"ĠVari":11117,"nextElement":11118,"Ġ42":11119,"viewer":11120,"ĠTestUtils":11121,"texture":11122,"ĠfindBy":11123,"Ġdispatch":11124,"Flux":11125,"ApplicationException":11126,"MOB":11127,"cular":11128,"ãĥ³":11129,"tools":11130,"iagnostics":11131,"PLACE":11132,"Mass":11133,"Neg":11134,"mapper":11135,"}));":11136,"ç©":11137,"ality":11138,"esture":11139,"enda":11140,"ĠDriver":11141,"illa":11142,"Indexed":11143,"Ġ>>>":11144,"ĠVer":11145,"testExpression":11146,"ĠserviceName":11147,"VERTI":11148,"ighter":11149,"Assertion":11150,"00000002":11151,"Ġsentence":11152,"Ġaggregate":11153,"ensitivity":11154,"regorianCalendar":11155,"BAD":11156,"gable":11157,"Ðº":11158,"å»º":11159,"inator":11160,"setBlock":11161,"ĠAudio":11162,"Append":11163,"annotations":11164,"company":11165,"Quality":11166,"ImmutableList":11167,"PARTITION":11168,"éĻ¤":11169,"haviour":11170,"IZE":11171,"Md":11172,"YY":11173,"clock":11174,");\\":11175,"getDisplayName":11176,"icular":11177,"ĠnewInstance":11178,"abor":11179,"ĠInetAddress":11180,"STAR":11181,"ĠtestCase":11182,"Attrib":11183,"ĠWr":11184,"Ġlogged":11185,"ĠThrow":11186,"ĠnodeId":11187,"textField":11188,"TRY":11189,"THER":11190,"ĠProxy":11191,"åı¯":11192,"Restore":11193,"Ġ90":11194,"Thrown":11195,"offer":11196,"ĠOrg":11197,"BYTES":11198,"ĠSwing":11199,"uggestions":11200,"DoesNot":11201,")\";":11202,"vp":11203,"Ġce":11204,"isTrace":11205,"Ġra":11206,"setting":11207,"ĠgetIntent":11208,"returnValue":11209,"ĠMIN":11210,"StateManager":11211,"ĠaddTo":11212,"backup":11213,"encoding":11214,"Appender":11215,"ftp":11216,"ordered":11217,"Ġarrays":11218,"Secure":11219,"Ġ{},":11220,"Plugins":11221,"ĠKeyValue":11222,"Ġtrust":11223,"WAIT":11224,"Ġpixels":11225,"phabet":11226,"Meter":11227,"Sig":11228,"Some":11229,"TProtocol":11230,"rv":11231,"¶Ī":11232,"ĠčĊĉĉĉ":11233,"Stored":11234,"odigo":11235,"ServiceClient":11236,"SITE":11237,"ovy":11238,"Reading":11239,"fromString":11240,"Ġversions":11241,"Ġabstract":11242,"LookAndFeel":11243,"Literals":11244,"Ġregex":11245,"Containers":11246,"ĠSAXException":11247,"ç©º":11248,"83":11249,"Cas":11250,"EK":11251,"IENT":11252,"Need":11253,"PHA":11254,"bination":11255,"fol":11256,"lated":11257,"payment":11258,"ĠĊĠĠĠĠĠĠĠĠĠĠĠĠĠĠĠĠĠĠĠ":11259,"atom":11260,"ĊĠĠĠĠĠĠĠĠĊĠĠĠ":11261,"getVariable":11262,"Ġsafe":11263,"estination":11264,"Ġdc":11265,"Ġdict":11266,"Ġlbl":11267,"ĠgetChild":11268,"REFERENCE":11269,"Ġindexes":11270,"TOM":11271,"contentType":11272,"ĠpageSize":11273,"ãģĹãģ":11274,"ĠINTO":11275,"CASE":11276,"getSubscription":11277,"ĠGeneral":11278,"EXTEN":11279,"æłĩ":11280,"errupted":11281,"Cent":11282,"Drive":11283,"Since":11284,"XPath":11285,"fm":11286,"Â¶":11287,"Ñĭ":11288,"instruction":11289,"getTop":11290,"Ġbulk":11291,"addColumn":11292,"onto":11293,"Ġii":11294,"ĠĠĠĠĠĠĠĠĠĠĠĠĠĠĠĠĠĠ":11295,"ClassNotFoundException":11296,"Ann":11297,"readValue":11298,"ServiceImpl":11299,"ĠFoo":11300,"ROL":11301,"ĠUP":11302,"WebSocket":11303,"msgs":11304,"XmlElement":11305,"CONTAIN":11306,"getFirstChild":11307,"ä½į":11308,"Ġinvoked":11309,"Ã£o":11310,"\"});":11311,"Ide":11312,"ISO":11313,"Nanos":11314,"bor":11315,"hist":11316,"mat":11317,"etition":11318,"getWindow":11319,"ĠTL":11320,"Ġ10000":11321,"ToInt":11322,"pret":11323,"ĠGET":11324,"Ġshare":11325,"Ġ'.":11326,"FromFile":11327,"Ġalign":11328,"Policies":11329,"Ġviews":11330,"VALUES":11331,"Ġfunctions":11332,"connector":11333,"è¿ĩ":11334,"ĠLinearLayout":11335,"Ġgeo":11336,"USTER":11337,"getPackageName":11338,"PACKAGE":11339,"Wifi":11340,"spawn":11341,"Ġutil":11342,"stable":11343,"emperature":11344,"setView":11345,"setHorizontal":11346,"ĠDataset":11347,"acted":11348,"Severity":11349,"Anonymous":11350,"FieldType":11351,"Ġchoose":11352,"Ġsequ":11353,"getCo":11354,"startObject":11355,"parseBoolean":11356,"Exporter":11357,"Ġoverrid":11358,"Ġgrant":11359,"Ð½Ð¸":11360,"enumer":11361,"Ġdetermin":11362,"ĠChatColor":11363,"CIM":11364,"Robot":11365,"da":11366,"ga":11367,"same":11368,"tenant":11369,"ĠERROR":11370,"roovy":11371,"isFalse":11372,"ablish":11373,"Ġduplicate":11374,"Ġreturning":11375,"Ġincorrect":11376,"ĠTIME":11377,"ople":11378,"StateChanged":11379,"ĉĉĉĉĉĉĉ":11380,"employ":11381,"ApiClient":11382,"Creative":11383,"Ġdrawable":11384,"ĠURISyntaxException":11385,"Ġdecor":11386,"Decorator":11387,"è½¬":11388,"Different":11389,"JButton":11390,"Lng":11391,"SOR":11392,"sBuilder":11393,"~\\":11394,"Ã¶":11395,"onom":11396,"getGame":11397,"Ġcross":11398,"Ġvol":11399,"paring":11400,"ĠNamed":11401,"FILL":11402,"ĊĠĠĠĠĠĠĠĠĠĠĠĠĠĠĠĠĠĠĠĠĠĠĠĠĠĠĠĠĠĠĠĠĠĠĠĠĠĠĠĠĠĠĠĠ":11403,"what":11404,"ĠImport":11405,"Ġworks":11406,"ILITY":11407,"ĠServiceException":11408,"è¯¢":11409,"Secondary":11410,"LAYOUT":11411,"OWL":11412,"INITIAL":11413,"FUNCTION":11414,"Cat":11415,"Hide":11416,"JAVA":11417,"Living":11418,"Mil":11419,"bn":11420,"star":11421,"urator":11422,"ilt":11423,"Ġ\"\"));":11424,"ĠTyped":11425,"ĠInstant":11426,"Ġcomplex":11427,"Once":11428,"udo":11429,"COND":11430,"ĠDataSource":11431,"marker":11432,"ampling":11433,"oftware":11434,"pmn":11435,"packageName":11436,"Known":11437,"material":11438,"getNumber":11439,"Ġsys":11440,"elcome":11441,"setLabel":11442,"Ġreverse":11443,"ĠSM":11444,"toPath":11445,"avas":11446,"[].":11447,"ĠInsets":11448,"EXIST":11449,"('.":11450,"Spring":11451,"Ġcompany":11452,"Pairs":11453,"Distributed":11454,"About":11455,"åĨħ":11456,"ians":11457,"Ġcaught":11458,"Ġthird":11459,"Ġfn":11460,"experiment":11461,"apes":11462,"Ġec":11463,"anging":11464,"Ġgui":11465,"Ġgateway":11466,"iped":11467,"MET":11468,"Ġsegments":11469,"ĠWriter":11470,"Extras":11471,"Frames":11472,"CONST":11473,"ĠtextView":11474,"getDatabase":11475,"News":11476,"Ġtemporary":11477,"åº¦":11478,"Bank":11479,"kill":11480,"Ã¼":11481,"Ġfm":11482,"Ġsa":11483,"riends":11484,"Ġobserv":11485,"ĠSnapshot":11486,"ĠScan":11487,"Ġtouch":11488,"ĠcreateTest":11489,"EntityType":11490,"EntityPlayer":11491,"udget":11492,"Ġlex":11493,"ĠrootView":11494,"radius":11495,"Ġallows":11496,"ä»¥":11497,"Ġdescribe":11498,")</":11499,")+\"":11500,"??":11501,"}\";":11502,"åĻ":11503,"getLayout":11504,"aseline":11505,"setItem":11506,"ĠIcon":11507,"calc":11508,"writeField":11509,"Statements":11510,"------------":11511,"Ġpositions":11512,"cula":11513,"Ignored":11514,"CODES":11515,"BEGIN":11516,"Movie":11517,"Ġfixture":11518,"DISPLAY":11519,"åıĤæķ°":11520,"Csv":11521,"Credit":11522,"Have":11523,"Half":11524,"mos":11525,"sa":11526,"sf":11527,"Ãĩ":11528,"itted":11529,"uples":11530,"ĠCSV":11531,"ĠgetD":11532,"ĠgetSupport":11533,"Ġanalyzer":11534,"Handling":11535,"Within":11536,"SystemException":11537,"getCustom":11538,"ProcessInstance":11539,"getBundle":11540,"etailed":11541,"retval":11542,"Ġmodules":11543,"Expiration":11544,"ucceed":11545,"Presentation":11546,"Reduce":11547,"ĠCharset":11548,"Ġ\"-\"":11549,"Ġtoolbar":11550,"ĠIOUtils":11551,"CodedOutputStream":11552,"STREAM":11553,")((":11554,";//":11555,"TF":11556,"dummy":11557,"gre":11558,"motion":11559,"ratch":11560,"íķ":11561,"getArguments":11562,"addField":11563,"ĠSeg":11564,"Ġll":11565,"INFIN":11566,"ystrix":11567,"ĠtestSet":11568,"ipo":11569,"Ġlista":11570,"Translator":11571,"subtract":11572,"ĠComplex":11573,"getParentFile":11574,"ĠSubscription":11575,"Ġdefine":11576,"design":11577,"Ġdimensions":11578,"ccurrence":11579,"Ġobtain":11580,"ercise":11581,"MEDIA":11582,"åĻ¨":11583,")[":11584,"=[":11585,"Mismatch":11586,"Rename":11587,"pw":11588,"tbl":11589,"æ¯":11590,"erg":11591,"imated":11592,"Ġstd":11593,"Classification":11594,"Configured":11595,"etermine":11596,"PropertyValue":11597,"Plain":11598,"LIGHT":11599,"Ġleave":11600,"OptionsItemSelected":11601,"getDist":11602,"ĠentityManager":11603,"ĠProgram":11604,"ĠHttpStatus":11605,"MeasureSpec":11606,"Latest":11607,"Ġplayers":11608,"GREEN":11609,"ĠawsRequestMetrics":11610,"FLOW":11611,"sensor":11612,"ĠStatic":11613,"ening":11614,"Ġca":11615,"ulsar":11616,"sem":11617,"igr":11618,"Ġreally":11619,"resolver":11620,"ForResult":11621,"anagers":11622,"ibling":11623,"Parameterized":11624,"Ġattack":11625,"Reflection":11626,"Assertions":11627,"Conditional":11628,"Creating":11629,"Txn":11630,"Denied":11631,"\"\\":11632,"Kafka":11633,"Lambda":11634,"TException":11635,"baz":11636,"lg":11637,"speed":11638,"}{@":11639,"ÃĴ":11640,"ĠValid":11641,"Ġtail":11642,"()\",":11643,"realm":11644,"isConnected":11645,"Ġpick":11646,"license":11647,"Ġdr":11648,"Ġdos":11649,"Ġobservable":11650,"Ġtopology":11651,"Ġexclude":11652,"ByKey":11653,"vals":11654,"ĠFOR":11655,"getCap":11656,"Ġextended":11657,"EXTERNAL":11658,"ä¸²":11659,"Ġconnections":11660,"MODI":11661,"branch":11662,"ĠExpr":11663,"actoring":11664,"ognized":11665,"ĠMatchers":11666,"strumentation":11667,"ccurrences":11668,")?":11669,"CAN":11670,"HH":11671,"ISH":11672,"PB":11673,"named":11674,"rpc":11675,"Ġing":11676,"Ġask":11677,"invalidate":11678,"getUri":11679,"getDevice":11680,"itelist":11681,"asis":11682,"Ġ**/":11683,"assigned":11684,"Ġgood":11685,"Ġgrammar":11686,"ATT":11687,"console":11688,"Ġcols":11689,"Assets":11690,"Linear":11691,"2017":11692,"which":11693,"åĪĹ":11694,"viction":11695,"stackSize":11696,"Bookmark":11697,"Ġassociation":11698,"wrapper":11699,"åįķ":11700,"Restrictions":11701,"Migration":11702,"TAB":11703,"family":11704,"iq":11705,"ĠContact":11706,"ittle":11707,"ĊĉĉĊĉĉĊĉ":11708,"ummary":11709,"ĠassertThrows":11710,"Ġresulting":11711,"Ġ'\\\\":11712,"getClassName":11713,"ĠcontentType":11714,"retry":11715,"does":11716,"Ġvars":11717,"Shortcut":11718,"Ġconflict":11719,"Ġdesign":11720,"HOUR":11721,"iagnos":11722,"Ġqualifier":11723,"({\"":11724,"MEMBER":11725,"Jo":11726,"dynamic":11727,"hold":11728,"pad":11729,"Ġtp":11730,"ĠreturnValue":11731,"using":11732,"ToAdd":11733,"ĠMaven":11734,"ĠDirect":11735,"Ġcommun":11736,"ĠJDBC":11737,"acquire":11738,"101":11739,"ConnectionFactory":11740,"CommandLine":11741,"Ġgeneral":11742,"compiler":11743,"Bluetooth":11744,"ĠOnClickListener":11745,"components":11746,"ĠGenerate":11747,"define":11748,"COMPLE":11749,"Directories":11750,"relative":11751,"Identifiers":11752,"å½ĵ":11753,"Attachments":11754,"aphore":11755,"Io":11756,"Joint":11757,"Picture":11758,"QNAME":11759,"ÃĹ":11760,"æ¶Ī":11761,"atable":11762,"getNetwork":11763,"iser":11764,"(\"&":11765,"une":11766,"Replica":11767,"ĠCar":11768,"STOR":11769,"Through":11770,"Formatted":11771,"getStringExtra":11772,"Partner":11773,"Assist":11774,"čĊĠĠĠĠĠĠĠĠĉ":11775,"Voice":11776,"Cards":11777,"convertTo":11778,"getLocalizedMessage":11779,"Ġblack":11780,"Ġdelimiter":11781,"Ġvertices":11782,"atisfied":11783,"unmodifiableList":11784,"ç¨ĭ":11785,"Motion":11786,"Samples":11787,"bra":11788,"fsp":11789,"mCurrent":11790,"etype":11791,"align":11792,"setModel":11793,"Ġws":11794,"ĠSV":11795,"ĠSdk":11796,"ĠgetNext":11797,"ryo":11798,"ServiceMethod":11799,"ĠENotificationImpl":11800,"Ġ400":11801,"phase":11802,"strong":11803,"IfAbsent":11804,"authentication":11805,"Amazon":11806,"åĬ¨":11807,"Ġvariant":11808,"ighbors":11809,"CodedInputStream":11810,"ico":11811,"upon":11812,"ĠTri":11813,"allery":11814,"DataException":11815,"TestHelper":11816,"Ġtested":11817,"UserInfo":11818,"ENTRY":11819,"findFirst":11820,"CHED":11821,"Ġformatted":11822,"keep":11823,"čĊĉĉĉĉĉĉĉĉĉ":11824,"Ġregions":11825,"IllegalAccessException":11826,"ĠÐ¿":11827,"CHANGED":11828,":\\\\":11829,"Dashboard":11830,"eu":11831,"gem":11832,"Ãī":11833,"Ġleg":11834,"Ġtw":11835,"stand":11836,"getTemplate":11837,"getGlobal":11838,"Ġcurve":11839,"Ġthree":11840,"Ġfamily":11841,"(\"}\");":11842,"apis":11843,"ably":11844,"setInput":11845,"Ġwon":11846,"addContainer":11847,"toFile":11848,"Ġcomparison":11849,"pause":11850,"Notifications":11851,"ElementException":11852,"cles":11853,"attrs":11854,"ReturnValue":11855,"Workbench":11856,"Timeline":11857,"Ġlocations":11858,"PERMISSION":11859,"ĠJsonNode":11860,"Ġ\"'\");":11861,"Ġplaceholder":11862,"çĽ®":11863,"æĸ¹æ³ķ":11864,"SWT":11865,"Tier":11866,"Vehicle":11867,"house":11868,"pub":11869,"åİ":11870,"Ġum":11871,"orque":11872,"Ġcategories":11873,"agate":11874,"unregister":11875,"ĠAv":11876,"ackbar":11877,"Deps":11878,"ORITY":11879,"ĊĊĉĠĠĠ":11880,"ALLOW":11881,"getSign":11882,"getServlet":11883,"fines":11884,"ĠMaps":11885,"PageContext":11886,"Ġmaps":11887,"ĠviewHolder":11888,"Assigned":11889,"propertyName":11890,"Ġqueries":11891,"Ġaddresses":11892,"è¿Ľ":11893,"PsiElement":11894,"Ġsupports":11895,"Foreign":11896,"yperlink":11897,")\\":11898,"Cfg":11899,"LB":11900,"Pop":11901,"hex":11902,"rmi":11903,"æĭ":11904,"Ġratio":11905,"Ġdp":11906,"ando":11907,"ĠStringReader":11908,"Ġlp":11909,"ĠgetSession":11910,"toggle":11911,"aily":11912,"Ġwhole":11913,"ĊĉĉĉĉĉĉĊĉĉĉĉĉ":11914,"arios":11915,"1011":11916,"rono":11917,"Ġbuffered":11918,"Spot":11919,"Topics":11920,"precation":11921,"CastException":11922,"romosome":11923,"%\");":11924,"Journal":11925,"()/":11926,"rofit":11927,"asString":11928,"Inline":11929,"setResult":11930,"setDisplay":11931,"Ġocc":11932,"Reactor":11933,"Ġinc":11934,"Ġast":11935,"ĠStringTokenizer":11936,"newHashSet":11937,"outer":11938,"Contexts":11939,"ĠFetch":11940,"Ġorientation":11941,"ĠOp":11942,"ĠdoReturn":11943,"Ġdefaults":11944,"Pojo":11945,"TIES":11946,"ertificates":11947,"SecurityException":11948,"Digits":11949,"ĠHashtable":11950,"AU":11951,"JPanel":11952,"LANG":11953,"OID":11954,"Predict":11955,"lc":11956,"most":11957,"čĊĠĠĠĠĠĠĠĠĠĠĠĠĠĠĠĠĠ":11958,"ingMode":11959,"edValue":11960,"Ġsin":11961,"setLong":11962,"addHeader":11963,"Ġstock":11964,"izers":11965,"Compaction":11966,"čĊčĊĠĠĠĠĠĠĠĠĠĠĠĠĠĠĠĠĠĠĠ":11967,"Cliente":11968,"Ġrunnable":11969,"checkArgument":11970,"ĠReturnType":11971,"country":11972,"ĠMathHelper":11973,"CellRenderer":11974,"Ġspinner":11975,"FORCE":11976,"Ġrepresents":11977,"ĠRemoves":11978,"Skill":11979,"ĠUtility":11980,"ĠDecimal":11981,"ĠAgent":11982,"Produces":11983,"MANAG":11984,"Ġbelong":11985,"ilarity":11986,"IDENTIFIER":11987,"Catch":11988,"Please":11989,"Sol":11990,"datab":11991,"fold":11992,"Â³":11993,"Ġclosing":11994,"Ġsamples":11995,"ides":11996,"Ġstudy":11997,"ĠgetObject":11998,"Ġhour":11999,"ĠDescription":12000,"Ġgive":12001,"prob":12002,"Ġjedis":12003,"FromString":12004,"preview":12005,"Ġactor":12006,"Ġhealth":12007,"Icons":12008,"ĠAnimation":12009,"Ġtrain":12010,"ProgressDialog":12011,"JavaScript":12012,"ĠTexture":12013,"COLLE":12014,"Artifacts":12015,"Mean":12016,"EsbElementTypes":12017,"HLAPI":12018,"getDrawable":12019,"ICON":12020,"drag":12021,"here":12022,"xpath":12023,"getExtension":12024,"amps":12025,"setAccessible":12026,"ĠinOrder":12027,"raf":12028,"ĠRULE":12029,"findById":12030,"Ġzk":12031,"Reload":12032,"ICAL":12033,"labels":12034,"ĠCoordinate":12035,"runcate":12036,"Ordinal":12037,"AWS":12038,"Epoch":12039,"Oid":12040,"sound":12041,"tail":12042,"Â¬":12043,"è·":12044,"ĠUTF":12045,"atives":12046,"Ġtax":12047,"getStack":12048,"Ġnorm":12049,"ently":12050,"Ġfos":12051,"sequ":12052,"ĠAxis":12053,"toURI":12054,"ĠPassword":12055,"comput":12056,"ĠOS":12057,"Ġvals":12058,"cols":12059,"ĊĠĠĠĠĠĠĠĠĠĠĠĠĠĠĠĠĠĠĠĠĠĠĠĠĠĠĠĠĠĠĠĠĠĠĠĠĠĠĠĠĠĠĠĠĠĠĠĠĠ":12060,"Ġappro":12061,"RuleCall":12062,"Ġminutes":12063,"ĠAny":12064,"Ġencounter":12065,"ĠImageIcon":12066,"Ġdeclared":12067,"ĠRemoteException":12068,"æ±Ĥ":12069,")-":12070,"acon":12071,"more":12072,"millis":12073,"arp":12074,"isChecked":12075,"thers":12076,"setContext":12077,"addLast":12078,"Ġreached":12079,"outh":12080,"Ġjpa":12081,"++);":12082,"Vals":12083,"ĠVar":12084,"Ġoutside":12085,"Delimit":12086,"Levels":12087,"riggers":12088,"PackageName":12089,"ĠStyle":12090,"ControlID":12091,"ĠShould":12092,"CREATED":12093,"ĠNOTE":12094,"ĠTopic":12095,"åĮĸ":12096,"avascript":12097,"Dn":12098,"gg":12099,"iable":12100,"rev":12101,"anit":12102,"setStart":12103,"ĠSize":12104,"ĠLI":12105,"ĠonResponse":12106,"Quad":12107,"writeObject":12108,"containsExactly":12109,"working":12110,"Ġtransformation":12111,"Compile":12112,"pective":12113,"orrection":12114,"ĠExp":12115,"statusCode":12116,"Expired":12117,"æľ¬":12118,"Aliases":12119,"Avatar":12120,"ĠrequireNonNull":12121,"Demo":12122,"isTraceEnabled":12123,"/[":12124,"Hive":12125,"MBean":12126,"NT":12127,"mov":12128,"yes":12129,"ĠĊĠĠĠĠĠ":12130,"implement":12131,"Released":12132,"Province":12133,"ooKeeper":12134,"ĠMax":12135,"ĠassertNot":12136,"ĠBinding":12137,"izedName":12138,"ĊĠĠĠĠĠĠĠĠĠĠĠĠĠĠĠĠĠĠĠĠĠĠĠĠĠĠĠĠĠĠĠĠĠĠĠĠĠĠĠĠĠĠĠĠĠĠĠĠ":12139,"Checkbox":12140,"Sessions":12141,"phere":12142,"Filesystem":12143,"Encrypted":12144,"Ġdisplayed":12145,"gridx":12146,"Ġèİ·åıĸ":12147,"VERTICAL":12148,"eNotification":12149,"got":12150,"ĠĊĉĉĉĉĉ":12151,"atural":12152,"getTags":12153,"anode":12154,"Ġmp":12155,"setPreferredSize":12156,"ĠTEXT":12157,"ĠgetT":12158,"ĠMongo":12159,"ervisor":12160,"Ġproto":12161,"astic":12162,"ĠGiven":12163,"ĠFail":12164,"prefs":12165,"psi":12166,"organization":12167,"Ġuseful":12168,"Ġjobs":12169,"exceptions":12170,"jobId":12171,"2001":12172,"ĠPrintStream":12173,"ä½ľ":12174,"PublicKey":12175,"äºĨ":12176,"azelcast":12177,"*(":12178,"IA":12179,"SR":12180,"getProvider":12181,"getRole":12182,"isInitialized":12183,"ĠmView":12184,"Ġmiddle":12185,"putBoolean":12186,"Ġ<}{@":12187,"ĠImp":12188,"INF":12189,"getSec":12190,"Recur":12191,"acle":12192,"Ġkv":12193,"Processed":12194,"Ġnumeric":12195,"train":12196,"ProgressMonitor":12197,"ĠPsiClass":12198,"ĠBufferedWriter":12199,"prototype":12200,"STATIC":12201,"Ticks":12202,"xxx":12203,"Factories":12204,"ricted":12205,"æĹ¥":12206,"ĠCompiler":12207,"ALIAS":12208,"eNotificationRequired":12209,"Vendor":12210,"lhs":12211,"ned":12212,"eness":12213,"alone":12214,"getRepository":12215,"getModule":12216,"Ġcv":12217,"charge":12218,"oment":12219,"abb":12220,"setX":12221,"plorer":12222,"ĠCase":12223,"ĠgetId":12224,"ĠPRI":12225,"ĠPipeline":12226,"Defs":12227,"TimeZone":12228,"ĠlistView":12229,"Ġxs":12230,"Forms":12231,"Trade":12232,"Startup":12233,"2016":12234,"charset":12235,"éĢļ":12236,"getRowCount":12237,"BLUE":12238,"Bot":12239,"DROP":12240,"Wallet":12241,"bm":12242,"href":12243,"iring":12244,"jPanel":12245,"getPartition":12246,"abbit":12247,"Ġaut":12248,"ĠSolr":12249,"ĠDA":12250,"ALOG":12251,"Ġshell":12252,"ĠNum":12253,"ĠSetting":12254,"Spell":12255,"valuation":12256,"Fully":12257,"isNullOrEmpty":12258,"RELATED":12259,"Ġbaos":12260,"ToolTipText":12261,"/\",":12262,"EDEFAULT":12263,"Friend":12264,"Make":12265,"Ping":12266,"machine":12267,"arrow":12268,"Ġpa":12269,"Ġslice":12270,"StringLiteral":12271,"omes":12272,"setRotation":12273,"imap":12274,"Ġincludes":12275,"ĠgetSelected":12276,"ĠPrimitive":12277,"concurrent":12278,"Quiet":12279,"ccion":12280,"finite":12281,"ĠdoSet":12282,"phrase":12283,"mtp":12284,"BODY":12285,"Phrase":12286,"worldObj":12287,"special":12288,"Attempts":12289,"å¾Ĺ":12290,"efficients":12291,":%":12292,"BC":12293,"Ev":12294,"Fake":12295,"based":12296,"criterion":12297,"take":12298,"ĉĠ":12299,"ĠStr":12300,"Ġescape":12301,"enk":12302,"anity":12303,"Ġnavigation":12304,"Ġfake":12305,"Ġsurface":12306,"olation":12307,"ĠgetModel":12308,"ARN":12309,"DETA":12310,"UTIL":12311,"ABC":12312,"(!(":12313,"Ġlinked":12314,"invokeLater":12315,"CALE":12316,"getEStructural":12317,"Ġfacet":12318,"æĪĲåĬŁ":12319,"Computer":12320,"Assembler":12321,"ĠDescribe":12322,"${":12323,"Win":12324,"Was":12325,"bank":12326,"fil":12327,"sess":12328,"serv":12329,"Âº":12330,"getBuilder":12331,"Ġ}\");":12332,"usion":12333,"tein":12334,"ĠRDF":12335,"Ġparallel":12336,"encia":12337,"ĠdoTest":12338,"oke":12339,"PageLink":12340,"Ġready":12341,"PROTO":12342,"BoundingBox":12343,"Ġ\"_\"":12344,"åĲĪ":12345,"PopupMenu":12346,"getTableName":12347,"umulator":12348,"Ġscheduled":12349,"Ġsyntax":12350,"Cop":12351,"DArray":12352,"FX":12353,"Wildcard":12354,"WINDO":12355,"bits":12356,"lp":12357,"pic":12358,"getURI":12359,"getExecution":12360,"arante":12361,"Ġsd":12362,"ĠClick":12363,"ĠgetLast":12364,"Collect":12365,"Ġsetter":12366,"compress":12367,"axe":12368,"\\\"\\":12369,"Ġlists":12370,"spot":12371,"ĠTestSuite":12372,"authentic":12373,"netes":12374,"ĠImageView":12375,"Ġbuttons":12376,"Ġregular":12377,"Deletion":12378,"Ġimmediately":12379,"Figure":12380,"Given":12381,"aims":12382,"dict":12383,"nMatr":12384,"uo":12385,"zer":12386,"Ã½":12387,"ÃĢ":12388,"alty":12389,"utions":12390,"InBytes":12391,"setTarget":12392,"vered":12393,"Ġack":12394,"ĠMO":12395,"like":12396,"RequestBuilder":12397,"ĠGl":12398,"IndexOutOfBoundsException":12399,"Delimiter":12400,"EDcula":12401,"PROVIDER":12402,"Ġfront":12403,"issue":12404,"MouseListener":12405,"Digit":12406,"ĠExecutionException":12407,"ubernetes":12408,"employee":12409,"Got":12410,"HR":12411,"Mesh":12412,"PV":12413,"Tele":12414,"ei":12415,"predicate":12416,"ÃĶ":12417,"getInfo":12418,"getTree":12419,"ici":12420,"icast":12421,"Std":12422,"Ġbinder":12423,"Ġinvalidate":12424,"ĠRO":12425,"TextChanged":12426,"ĠtestCreate":12427,"ointment":12428,"ĠstartDate":12429,"ĠChunk":12430,"ynchronization":12431,"SelectionEvent":12432,"Toolkit":12433,"Blue":12434,"removed":12435,"ĠSTART":12436,"amazonaws":12437,"Interpolator":12438,"3000":12439,"5000":12440,"OLD":12441,"gif":12442,"ĠEngine":12443,"īĩ":12444,"roken":12445,"Ġpv":12446,"Ġbuilt":12447,"omet":12448,"setPosition":12449,"Ġacl":12450,"ĠBi":12451,"DataList":12452,"Adapt":12453,"getSuper":12454,"attachment":12455,"ĠComment":12456,"CONF":12457,"Ġstreams":12458,"Ġcoord":12459,"QUEUE":12460,"caten":12461,"allowed":12462,"ServiceResponseAsync":12463,"æĺ¯åĲ¦":12464,"CompilationUnit":12465,"Wid":12466,"hbase":12467,"lon":12468,"padding":12469,"publisher":12470,"getSettings":12471,"Ġ}.":12472,"Stride":12473,"Ġ(;":12474,"Ġpiece":12475,"Ġdm":12476,"Ġexc":12477,"series":12478,"Ġnotes":12479,"OfType":12480,"Ġshown":12481,"ĠEObject":12482,"ĠendDate":12483,"ĠUSER":12484,"mpp":12485,"Ordered":12486,"ĠKafka":12487,"methods":12488,"copyFrom":12489,"','":12490,"ccuracy":12491,"Ġpreviously":12492,"operations":12493,"TEMPLATE":12494,"PLAIN":12495,"ĠonItemClick":12496,"ĠSegment":12497,":\",":12498,"Mech":12499,"Pur":12500,"eff":12501,"vr":12502,"xf":12503,"Â°":12504,"arc":12505,"ĊĉĠĠĠĠĠĠĠĠĠĠĠĠ":12506,"Ġthing":12507,"Ġpd":12508,"Ġ\"/**":12509,"setAuto":12510,"ocab":12511,"news":12512,"ERT":12513,"construct":12514,"MessageType":12515,"Ġ26":12516,"Embedded":12517,"Ġcolors":12518,"EXIT":12519,"visitor":12520,"Ġindividual":12521,"ĠmetaData":12522,"specific":12523,"ĠParameters":12524,"latitude":12525,"ĠNOI":12526,"Ġrouter":12527,"BOTTOM":12528,"CUSTOM":12529,"Episode":12530,"Lon":12531,"Layers":12532,"Mvc":12533,"Qty":12534,"Ssl":12535,"py":12536,"ä¾":12537,"ĠProcessor":12538,"onNext":12539,"isOpen":12540,"Ġspawn":12541,"Ġrt":12542,"ĠmPath":12543,"essenger":12544,"oted":12545,"ListModel":12546,"Ġhi":12547,"ĠPower":12548,"DataProvider":12549,"aste":12550,"DEVICE":12551,"Ġprecision":12552,"ĠElastic":12553,"Extent":12554,"players":12555,"Ġheap":12556,"Deliver":12557,"SIC":12558,"Ġcounts":12559,"Ġbuilding":12560,"ĠUnknown":12561,"ĠCalled":12562,"avigator":12563,"getFileName":12564,"ampler":12565,"å®¹":12566,"Vertices":12567,"åºĶ":12568,"Cube":12569,"Knowledge":12570,"Mo":12571,"Mongo":12572,"`.":12573,"Ġtakes":12574,"arv":12575,"Ġcent":12576,"Ġpred":12577,"Ġaux":12578,"ontology":12579,"TypeInfo":12580,"Ġdeleg":12581,"conds":12582,"Ġann":12583,"EndTime":12584,"ĠstatusCode":12585,"Endpoints":12586,"getRandom":12587,"metic":12588,"BeforeClass":12589,"ĠhttpClient":12590,"cpu":12591,"PrintWriter":12592,"ĠTreeNode":12593,"Ġconditions":12594,"Ġimported":12595,"Simulation":12596,"Parcelable":12597,"Armor":12598,"ĠPendingIntent":12599,"olerance":12600,"JFrame":12601,"Maven":12602,"Nav":12603,"fact":12604,"mf":12605,"qn":12606,"ç½®":12607,"onSuccess":12608,"getStackTrace":12609,"Ġcmp":12610,"Ġprior":12611,"InetAddress":12612,"Ġbot":12613,"quick":12614,"Ġdie":12615,"ĠStrings":12616,"ToFile":12617,"ĠMapping":12618,"ĠPayment":12619,"Ġproblems":12620,"Ġwhite":12621,"ĠJOIN":12622,"\\\">\\":12623,"ErrorHandler":12624,"nextLine":12625,"retrieve":12626,"Ports":12627,"Ġdocs":12628,"Ġoffer":12629,"execSQL":12630,"Mutation":12631,"Life":12632,"nbsp":12633,"Derived":12634,"ĠConnector":12635,"åŃĹç¬¦ä¸²":12636,"INFINITY":12637,"Gem":12638,"Ġtyped":12639,"Ġ{{":12640,"getEx":12641,"getFields":12642,"asing":12643,"ĊĉĠĠĠĠĠĠĠĠĠĠĠĠĠĠĠ":12644,"Ġrename":12645,"setField":12646,"Ġincluding":12647,"Problems":12648,"ĠgetField":12649,"ĠManager":12650,"angles":12651,"ĠHigh":12652,"ĠtypeName":12653,"ĠSQLite":12654,"Closing":12655,"EOF":12656,"Guid":12657,"NER":12658,"ja":12659,"turn":12660,"ically":12661,"Ġpay":12662,"adaptor":12663,"Inherit":12664,"ĠSELE":12665,"Degree":12666,"Three":12667,"IDDEN":12668,"REMO":12669,"errHandler":12670,"attack":12671,"TagList":12672,"placement":12673,"Ġoutputs":12674,"ACCE":12675,"Coords":12676,"chars":12677,"Cells":12678,"oucher":12679,"anyString":12680,"setScale":12681,"worldIn":12682,"Ġreplacement":12683,"vidence":12684,"uplicates":12685,"ĠAttributeSet":12686,"Detection":12687,"Ġswap":12688,"Ġprototype":12689,"ĠDownload":12690,"addContainerGap":12691,".__":12692,"Hours":12693,"License":12694,"Suggestion":12695,"Too":12696,"cmp":12697,"suffix":12698,"ĴĮ":12699,"urther":12700,"Ġwarn":12701,"principal":12702,"REMOVE":12703,"Ġwhy":12704,"TableColumn":12705,"ĠReg":12706,"Particle":12707,"Orders":12708,"getBounds":12709,"photo":12710,"general":12711,"ãģ«":12712,"ĠPlay":12713,"ĠINTEGER":12714,"Offline":12715,"\\\",\\":12716,"camera":12717,"ĠReflection":12718,"RUNNING":12719,"é¡µ":12720,"deleted":12721,"æĽ´":12722,"AI":12723,"DAP":12724,"GRAY":12725,"Ldap":12726,"Must":12727,"OC":12728,"mise":12729,"wall":12730,"Ġé":12731,"enqueue":12732,"getFilter":12733,"seed":12734,"ember":12735,"addRow":12736,"Ġls":12737,"ObjectName":12738,"Ġhook":12739,"ĠisSet":12740,"ithmetic":12741,"ivative":12742,"ĠĠĠĠĠĠĠĠĠĠĠĠĠĠĠĠĠĠĠĠĠ":12743,"Notifier":12744,"ancell":12745,"Ġ300":12746,"ĠstartIndex":12747,"102":12748,"Ġpreferred":12749,"UTH":12750,"bolic":12751,"runOnUiThread":12752,"Flavor":12753,"Ġdescrib":12754,"Ġpartitions":12755,"CLUSTER":12756,"Ġreplaced":12757,"Ġaround":12758,"Assignments":12759,"threads":12760,"FAILURE":12761,"ĠBitSet":12762,"ĠSTRING":12763,"Best":12764,"BIN":12765,"SEN":12766,"bw":12767,"scalar":12768,"ç®":12769,"čĊĠĠĠĠĠĠĠĠĠĠĠĠĠĠĠĠĠĠĠĠ":12770,"reload":12771,"roles":12772,"Ġsound":12773,"usage":12774,"ooper":12775,"ĠBind":12776,"Classifier":12777,"TimeUnit":12778,"posable":12779,"Paragraph":12780,"ĠWH":12781,"atten":12782,"Ġentire":12783,"ĠEMPTY":12784,"2012":12785,"Specs":12786,"=\\\"\"":12787,"Ġexpressions":12788,"CONTROL":12789,"IllegalStateException":12790,"Ġfully":12791,"IpAddress":12792,"IZED":12793,"Buckets":12794,"æį¢":12795,"ĠGeometry":12796,"ĠSecurityException":12797,"ĠDeploy":12798,"subscriptionId":12799,"Escape":12800,"ĠLookup":12801,"Coding":12802,"Kit":12803,"earch":12804,"flip":12805,"green":12806,"getEditor":12807,"getProduct":12808,"Ġbg":12809,"Ġmappings":12810,"about":12811,"setPositive":12812,"ĊĉĉĉĉĠĠĠ":12813,"vec":12814,"Energy":12815,"ĠMust":12816,"ĠJMenuItem":12817,"ORTED":12818,"ĠOF":12819,"META":12820,"SEQU":12821,"Ġscene":12822,"Ġrecipient":12823,"ĠsessionId":12824,"ToolBar":12825,"250":12826,"columnName":12827,"ularity":12828,"ĊĠĠĠĠĠĠĠĠĠĠĠĠĠĠĠĠĠĠĠĠĠĠĠĠĠĠĠĠĠĠĠĠĠĠĠĠĠĠĠĠĠĠĠĠĠĠĠĠĠĠĠĠĠĠĠĠĠĠĠ":12829,"ĠonCreateView":12830,"Ġgoal":12831,"Activated":12832,"Issuer":12833,"Ġgeometry":12834,"FRAME":12835,"ĠRetrieve":12836,"Ġevaluation":12837,"finishedMessage":12838,"Nr":12839,"Squ":12840,"ĊĊĠĠĠĠĠĠĠĠĠĠĠĠĠ":12841,"getInternal":12842,"Ġsym":12843,"Ġ\"?":12844,"theme":12845,"Ġtoggle":12846,"ĠgetService":12847,"ĠMBean":12848,"Charge":12849,"ĠtestAdd":12850,"ĠFull":12851,"ĠFire":12852,"WithServiceResponseAsync":12853,"nextDouble":12854,"ĠEl":12855,"workflow":12856,"Returns":12857,"Flat":12858,"matched":12859,"getAg":12860,"taskId":12861,"ĠaccessToken":12862,"ĠTimeout":12863,"getNodeName":12864,"ChatColor":12865,"Ġdecimal":12866,"Symbols":12867,"Swap":12868,"Compatible":12869,"BigInteger":12870,"ĠĠĠĠĠĠĠĠĠĠĠĠĠĠĠĠĠĠĠĠĠĠĠĠĠĠĠĠĠĠĠĠĠĠĠĠĠĠĠĠĠĠĠĠĠĠĠĠĠĠĠĠĠĠĠĠĠĠĠĠĠĠĠĠĠĠĠĠĠĠĠĠĠĠĠĠĠĠĠĠĠĠĠĠĠĠĠĠĠĠĠĠĠĠĠĠĠĠĠĠĠĠĠĠĠĠĠĠĠĠĠĠĠĠĠĠĠĠĠĠĠĠĠĠĠĠĠĠ":12871,"ãģĻãĤĭ":12872,"Opaque":12873,"CODING":12874,"enkins":12875,"Cipher":12876,"Ruby":12877,"cost":12878,"pages":12879,"vable":12880,"insets":12881,"std":12882,"getExpression":12883,"Ġcsv":12884,"deployment":12885,"Inf":12886,"Incorrect":12887,"ellow":12888,"agg":12889,"ĠmT":12890,"Ġmesh":12891,"setFile":12892,"ĠSorted":12893,"ĠMail":12894,"Ġlos":12895,"ĠJTextField":12896,"ĠOffset":12897,"getSpec":12898,"Ġasc":12899,"validator":12900,"UNI":12901,"ĠXY":12902,"UIManager":12903,"180":12904,"å®ŀ":12905,"çĶŁ":12906,"Synth":12907,"ExistsException":12908,"authorization":12909,"setContentView":12910,"Ġqualified":12911,"æīĢ":12912,"ARGUMENT":12913,"routingTable":12914,"iagnosis":12915,"($":12916,")_":12917,"91":12918,"Cases":12919,"MC":12920,"Purchase":12921,"Rx":12922,"cnt":12923,"neg":12924,"getOption":12925,"Ġpin":12926,"Ġsending":12927,"Ġmedi":12928,"setDate":12929,"addHandlerContext":12930,"ĠAc":12931,"ĠPriority":12932,"ĠInfo":12933,"ĠlistOf":12934,"ĠWidget":12935,"Recover":12936,"Ġstatements":12937,"ATIONS":12938,"THREAD":12939,"ĠcolumnIndex":12940,"PostExecute":12941,"ĠEntityPlayer":12942,"avigate":12943,"desktop":12944,"Corner":12945,"setBackgroundColor":12946,"ĠMainActivity":12947,"HandlerContextKey":12948,"Ġcopied":12949,"Cy":12950,"Dr":12951,"IB":12952,"KV":12953,"Most":12954,"WEST":12955,"Â¹":12956,"setStroke":12957,"Ġreduce":12958,"ĠgetConnection":12959,"Ġcomments":12960,"ĠnotNull":12961,"ManagerFactory":12962,"UTION":12963,"ĠitemView":12964,"ĠConsole":12965,"ĠHttpClient":12966,"LoadBalancer":12967,"192":12968,"getLocalName":12969,"SKIP":12970,"Ġdevices":12971,"Sq":12972,"YMENT":12973,"browser":12974,"hot":12975,"how":12976,"iate":12977,"mv":12978,"night":12979,"sig":12980,"Ãį":12981,"ĠEdit":12982,"errit":12983,"analysis":12984,"Ġcas":12985,"Ġsingleton":12986,"Ġvelocity":12987,"ols":12988,"setVersion":12989,"igrate":12990,"Ġaverage":12991,"article":12992,"ritical":12993,"oped":12994,"ĠFailed":12995,"ĠJScrollPane":12996,"Interactions":12997,"Caller":12998,"Substit":12999,"ebook":13000,"Ġtranslation":13001,"IsNull":13002,"defaultValue":13003,"Ġdistribution":13004,"ĠapiVersion":13005,"ASTNode":13006,"getEffect":13007,"Ġgoing":13008,"Placeholder":13009,"Datum":13010,"Ġbuckets":13011,"Requirements":13012,"Ġeverything":13013,"Promise":13014,"DISABLE":13015,"Protection":13016,"ä¼ļ":13017,"getCanonicalName":13018,"completed":13019,"setPositiveButton":13020,"*)":13021,"Dates":13022,"EJB":13023,"Fil":13024,"Grade":13025,"fp":13026,"hr":13027,"Ãģ":13028,"æĬ":13029,"ĠUpdates":13030,"Strict":13031,"(\"\"":13032,"(\"^":13033,"Ġob":13034,"ĠClear":13035,"ĠgetList":13036,"Ġgit":13037,"Ġdecoder":13038,"ĠqueryString":13039,"pens":13040,"ĠConst":13041,"atern":13042,"visions":13043,"Maximum":13044,"ĠimageView":13045,"filters":13046,"Ġsearcher":13047,"ĠNodeList":13048,"override":13049,"members":13050,"ĠpushFollow":13051,"ĠMediaType":13052,"ĠDOC":13053,"ĠDOMElement":13054,"cleanup":13055,"Violation":13056,"COLLECTION":13057,",\\":13058,"nn":13059,"rank":13060,"Ġtbl":13061,"getFunction":13062,"Ġneg":13063,"ĊĉĊĉ":13064,"Ġframework":13065,"Ġfrequency":13066,"InProgress":13067,"Ġbroadcast":13068,"Ġmix":13069,"Ġstrip":13070,"ĠSA":13071,"ObjectMap":13072,"ĠPublic":13073,"ĠPatient":13074,"Ġdeep":13075,"keyword":13076,"erialization":13077,"parseFloat":13078,"ABASE":13079,"longitude":13080,"ACL":13081,"ĠShard":13082,"InternalEObject":13083,"compatible":13084,"getRout":13085,"NEG":13086,"Ġencrypted":13087,"Ġchannels":13088,"Ġstopped":13089,"Busy":13090,"\">//":13091,"ç»Ħ":13092,"(\"{\\\"":13093,"ĠAtomicReference":13094,"MutableTreeNode":13095,"dependency":13096,"FACTORY":13097,"Ġmilliseconds":13098,"Ġproperly":13099,"getOriginal":13100,".\")":13101,"Difference":13102,"Sel":13103,"fb":13104,"fv":13105,"rg":13106,"æµ":13107,"Ġring":13108,"ettle":13109,"orded":13110,"Ġsong":13111,"ĠAfter":13112,"ValueType":13113,"ĠBACK":13114,"ĠInetSocketAddress":13115,"ĠresultCode":13116,"readObject":13117,"Union":13118,"reduce":13119,"possible":13120,"Recursive":13121,"Ġalignment":13122,"ĠRealm":13123,"flu":13124,"ĠbuildPartial":13125,"Minutes":13126,"Ġbackend":13127,"ĠoriginalDepth":13128,"ĠEnumeration":13129,"ĠTrace":13130,"Ġdigest":13131,"Authenticated":13132,"rottle":13133,"CONDITION":13134,"'ll":13135,"LIT":13136,"Oct":13137,"VR":13138,"cu":13139,"lighter":13140,"math":13141,"vy":13142,"getResults":13143,"ingState":13144,"icult":13145,"changes":13146,"ĠmCurrent":13147,"ĠScope":13148,"termin":13149,"ĠMat":13150,"Ġjdbc":13151,"Ġitr":13152,"Ġ');":13153,"Ġkeyword":13154,"Tracing":13155,"ĠdoInBackground":13156,"Ġdispose":13157,"ĠLogging":13158,"modules":13159,"ĠExecute":13160,"Ġcompound":13161,"Ġtxn":13162,"authorized":13163,"getReal":13164,"Ġannotated":13165,"Soap":13166,"ç±»åŀĭ":13167,"enumerations":13168,"getEStructuralFeatures":13169,"81":13170,"Aux":13171,"Bond":13172,"Benchmark":13173,"hance":13174,"oices":13175,"ÃĮ":13176,"ĊĊĠĠĠĠĠĠĠĠĠĠĠĠ":13177,"ħį":13178,"getAdapter":13179,"getAuthor":13180,"getKind":13181,"utation":13182,"edu":13183,"Ġft":13184,"look":13185,"setBody":13186,"setPassword":13187,"oter":13188,"ĠTR":13189,"Overview":13190,"ĠPlease":13191,"NodeList":13192,"ĠNet":13193,"StatusCode":13194,"Ġunregister":13195,"COVER":13196,"getAmount":13197,"ï¼ī":13198,"easures":13199,"CloseOperation":13200,"00000004":13201,"ĠBitmapFactory":13202,"getSelectionModel":13203,"MODULE":13204,"CKET":13205,"è¯·æ±Ĥ":13206,"ĠInvocationTargetException":13207,"folio":13208,"(...":13209,"<<":13210,"RDF":13211,"Sensitive":13212,"dark":13213,"mq":13214,"rdf":13215,"sdk":13216,"ĠâĢ":13217,"onal":13218,"Ġtb":13219,"getFeature":13220,"Ġrb":13221,"Ġobs":13222,"uml":13223,"IdList":13224,"ĠCM":13225,"Ġhad":13226,"ĠIF":13227,"Ġide":13228,"angular":13229,"serve":13230,"STUD":13231,"NodeType":13232,"\\\"\");":13233,"QueryResult":13234,"ResourceType":13235,"Ġdisconnect":13236,"Ġadvanced":13237,"ĠExchange":13238,"ĠjobId":13239,"ï¼Ī":13240,"Ġcoords":13241,"åı·":13242,"Restart":13243,"getLanguage":13244,"='\"":13245,"Showing":13246,"è¿Ļ":13247,"Waiting":13248,"Ġdeclaration":13249,"rivileged":13250,"Ġrotate":13251,"Ġ\"{\\\"":13252,"planation":13253,"UnderTest":13254,"getSubscriptionId":13255,"Maker":13256,"Por":13257,"Typ":13258,"VENT":13259,"broadcast":13260,"jp":13261,"zk":13262,"ĠExtended":13263,"()*":13264,"Ġcare":13265,"Ġsdf":13266,"Ġrd":13267,"Ġnewly":13268,"Ġbt":13269,"Ġhierarchy":13270,"touch":13271,"ĠDummy":13272,"DataObject":13273,"fake":13274,"Ġ201":13275,"Ġallocated":13276,"Traversal":13277,"ADATA":13278,"ĠhasNext":13279,"ĠserviceCallback":13280,"Transactions":13281,"getFloat":13282,"ĠinitComponents":13283,"Ġexecuting":13284,"Expanded":13285,"IGH":13286,"Redis":13287,"ĠAdmin":13288,"getChildCount":13289,"VirtualFile":13290,"Ġreplication":13291,"pliance":13292,"CLUDE":13293,"/\");":13294,"RAD":13295,"Raster":13296,"broker":13297,"pick":13298,"trip":13299,"åĴĮ":13300,"ĠController":13301,"atibility":13302,"ars":13303,"Ġbootstrap":13304,"Ġdifference":13305,"addPreferred":13306,"Ġlazy":13307,"ĠCertificate":13308,"Ġhidden":13309,"ĠDon":13310,"ForTesting":13311,"ENCODING":13312,"ĠHH":13313,"ARB":13314,"Recent":13315,"Ġalbum":13316,"actionGet":13317,"listeners":13318,"Ġprojects":13319,"Declar":13320,"hostname":13321,"Ġhostname":13322,"ĠArch":13323,"å¤§":13324,"ndi":13325,"Txt":13326,"features":13327,"Ġdetect":13328,"ÑģÑĤ":13329,"ĠFIELD":13330,"Rewrite":13331,"âĶĢ":13332,"Dfa":13333,"Motor":13334,"Ore":13335,"UG":13336,"gml":13337,"popup":13338,"week":13339,"é¢":13340,"Ġut":13341,"getGraph":13342,"Ġpol":13343,"ubble":13344,"oting":13345,"ĠAN":13346,"ĠAzure":13347,"ObjectData":13348,"DataModel":13349,"Ġchooser":13350,"ĠOUT":13351,"Ġchecksum":13352,"LocalDate":13353,"getPerson":13354,"Ġadapt":13355,"nodeId":13356,"SCROLL":13357,"ĠExport":13358,"ĠTransfer":13359,"ntk":13360,"ĠCalcul":13361,"å¤Ħ":13362,"Measurement":13363,"VARCHAR":13364,"ĠDepend":13365,"setImageResource":13366,"camelContext":13367,"Ġinjector":13368,"NOTIFICATION":13369,"CONTAINER":13370,"Quietly":13371,"'));":13372,"ICE":13373,"nav":13374,"ķãĤ":13375,"Ġnm":13376,"adapt":13377,"Ġmutable":13378,"Ġwallet":13379,"Ġgetter":13380,"(),\"":13381,"Compress":13382,"ĠRoot":13383,"ALIGN":13384,"ĠTheme":13385,"BlockState":13386,"earDown":13387,"Ġiterable":13388,"Describe":13389,"SELECTED":13390,"converter":13391,"Ġvisited":13392,"toolbar":13393,"BufferedImage":13394,"onedDateTime":13395,"PUBLIC":13396,"orrent":13397,"Diagnostic":13398,"Mag":13399,"Pipe":13400,"ez":13401,"gi":13402,"wk":13403,"ĠExtract":13404,"iny":13405,"ĊĉĉĊĉĉ":13406,"deep":13407,"Ġ('":13408,"Ġfast":13409,"Ġfallback":13410,"Ġsu":13411,"(\";":13412,"(\"\")":13413,"Ġ\"\").":13414,"Ġda":13415,"ĠSection":13416,"assertNot":13417,"Ġhard":13418,"Analytics":13419,"Ġseen":13420,"ĠrequestCode":13421,"getCreated":13422,">>(":13423,"ĠSetup":13424,"Ġscenario":13425,"getDomain":13426,"ibraries":13427,"æľŁ":13428,"COMMIT":13429,"================================":13430,"inuous":13431,"ĠHelper":13432,"ĠSupplier":13433,"CIMAL":13434,"addPreferredGap":13435,"199":13436,"?\",":13437,"Bug":13438,"Bootstrap":13439,"LP":13440,"Wire":13441,"days":13442,"jk":13443,"land":13444,"management":13445,"np":13446,"oa":13447,"qq":13448,"Ġundo":13449,"getApi":13450,"(\"+":13451,"Ġbetter":13452,"setUse":13453,"setToolTipText":13454,"usuario":13455,"ĠMore":13456,"ĠMeasure":13457,"ĠsetProperty":13458,"STEP":13459,"Thumbnail":13460,"Uniform":13461,"COUN":13462,"getCategory":13463,"startControlID":13464,"\"))));":13465,"generic":13466,"Wrapped":13467,"Ġindicator":13468,"Flowable":13469,"Ġsigned":13470,"Ġsecondary":13471,"ĠPointer":13472,"PROPERTIES":13473,"CPU":13474,"æĹ¶éĹ´":13475,"Authenticator":13476,"Performance":13477,"Ġseparate":13478,"ĠRelationship":13479,"Delimited":13480,"Cpu":13481,"EMAIL":13482,"Sur":13483,"Solver":13484,"clip":13485,"iprot":13486,"power":13487,"æı":13488,"incoming":13489,");\");":13490,"getPre":13491,"getFrame":13492,"icial":13493,"Ġthough":13494,"Ġfin":13495,"segments":13496,"Ġmn":13497,"umes":13498,"ToLong":13499,"ĠDrop":13500,"ĠBE":13501,"getSecond":13502,"Ġship":13503,"errorMessage":13504,"MethodDescriptor":13505,"arness":13506,"HttpURLConnection":13507,"Ġgeneration":13508,"getDefaultState":13509,"ĠREST":13510,"TEXTURE":13511,"ĠDisk":13512,"Regular":13513,"getMethodName":13514,"Ġslave":13515,"guard":13516,"utorial":13517,"å¸¸":13518,"Pod":13519,"hint":13520,"large":13521,"sms":13522,"ëĭ":13523,"invocation":13524,"alarm":13525,"stock":13526,"getCon":13527,"getHeaders":13528,"isClosed":13529,"uts":13530,"Ġfc":13531,"Ġdfs":13532,"Probe":13533,"Provision":13534,"qualified":13535,"Objective":13536,"Ġresolution":13537,"Department":13538,"Advanced":13539,"Implicit":13540,"ĠGRO":13541,"ARM":13542,"logs":13543,"Scores":13544,"LayoutStyle":13545,"Ġkernel":13546,"fixed":13547,"Ġdispatcher":13548,"ĠrecyclerView":13549,"ĠChart":13550,"Whitespace":13551,"ĠINDArray":13552,"uxio":13553,"Weights":13554,"ĠNotificationChain":13555,"Datatype":13556,"Ġconstants":13557,"ASSIGN":13558,"Ġexplicitly":13559,"velopment":13560,"ByTagName":13561,"AE":13562,"CSS":13563,"Grad":13564,"JNI":13565,"Pub":13566,"closed":13567,"jac":13568,"}).":13569,"èĢ":13570,"ĊĊĠĠĠĠ":13571,"Ġticket":13572,"isVisible":13573,"ilver":13574,"choose":13575,"Ġband":13576,"third":13577,"Reject":13578,"Ġequivalent":13579,"Ġlambda":13580,"FileInfo":13581,"Compute":13582,"energy":13583,"Ġcomposed":13584,"compressed":13585,"ĠGo":13586,"TimeSeries":13587,"ĠFactory":13588,"ofNullable":13589,"Ġxsp":13590,"Ġ'-":13591,"SSF":13592,"VersionUID":13593,">(_":13594,"ova":13595,"Ġviewer":13596,"pense":13597,"sessionId":13598,"icons":13599,"theEObject":13600,"Monitoring":13601,"ĠdefStyle":13602,"aje":13603,"GeneratedMessageV":13604,"ĠNamespace":13605,"Finding":13606,"Pdf":13607,"craft":13608,"candidate":13609,"slice":13610,"tb":13611,"ĠčĊĠĠĠĠĠĠĠ":13612,"ĠExt":13613,"ĠKeys":13614,"Ġtabs":13615,"getEvents":13616,"Ġsur":13617,"ĠmAdapter":13618,"emit":13619,"ĊĉĉĉĠ":13620,"izar":13621,"ĠDirection":13622,"ĠtestName":13623,"ĠFree":13624,"Attrs":13625,"logical":13626,"120":13627,"paths":13628,"ByteBuf":13629,"StoreException":13630,"myProject":13631,"://\"":13632,"+\"\\":13633,"models":13634,"AXIS":13635,"Drawing":13636,"Ġopened":13637,"Verification":13638,"ĠClone":13639,"ç»ĵ":13640,"ĠTimestamp":13641,"getMemory":13642,"iliation":13643,"amento":13644,"ĠAuthorization":13645,"VARIABLE":13646,"DETAIL":13647,"110":13648,"GG":13649,"Mid":13650,"Major":13651,"PY":13652,"TEN":13653,"cus":13654,"rich":13655,"Ñĩ":13656,"getOptions":13657,"Ġ(%":13658,"Ġfval":13659,"Inclusive":13660,"setError":13661,"peg":13662,"Prov":13663,"ĠgetImage":13664,"))))":13665,"Ġhorizontal":13666,"newItem":13667,"lective":13668,"archive":13669,"ĠFileUtil":13670,"getCheck":13671,"nextFloat":13672,"ĠComput":13673,"runways":13674,"lastModified":13675,"txn":13676,"ĠdateFormat":13677,"openConnection":13678,"ValidationException":13679,"Stopped":13680,"Sections":13681,"è®¤":13682,"Ġhighlight":13683,"getResultList":13684,"Prompt":13685,"Ġexactly":13686,"SCALE":13687,"ĠFIXME":13688,"runwaysdk":13689,"61":13690,"GRA":13691,"Lost":13692,"OWN":13693,"rhs":13694,"ç´":13695,"Ľå»º":13696,");}":13697,"getStep":13698,"ulfill":13699,"Ġpull":13700,"exion":13701,"exclude":13702,"apse":13703,"racle":13704,"health":13705,"ĠPK":13706,"ĠBar":13707,"INVO":13708,"Ġdeferred":13709,"RequestBody":13710,"ĠJar":13711,"Valor":13712,"ĠclassLoader":13713,"Accessibility":13714,"recycle":13715,"emptySet":13716,"Products":13717,"Ġprintln":13718,"Canonical":13719,"FullName":13720,"ĠBuildTarget":13721,"Playlist":13722,"serializer":13723,"RETURN":13724,"Ġanchor":13725,"/%":13726,"360":13727,"Hop":13728,"ILE":13729,"KER":13730,"Sleep":13731,"Water":13732,"typed":13733,"xn":13734,"Ã¢":13735,"ĠONE":13736,"lood":13737,"units":13738,"ĠMay":13739,"concept":13740,"axb":13741,"readOnly":13742,"Shop":13743,"queryBuilder":13744,"Train":13745,"Outputs":13746,"ĠRece":13747,"RowCount":13748,"checkState":13749,"KEYCODE":13750,"ĠStage":13751,"ĠViewHolder":13752,"processed":13753,"FORE":13754,"FOLDER":13755,"8080":13756,"Structured":13757,"Ġdrawer":13758,"Ġrestriction":13759,"echa":13760,"venience":13761,"functionAddress":13762,"POSITIVE":13763,"Ġnormalize":13764,"ĠClusterState":13765,"Ġrectangle":13766,"////////////////////////////////":13767,"eleton":13768,"ĠSdkClientException":13769,".)":13770,":{":13771,"LU":13772,"Pet":13773,"PID":13774,"SAX":13775,"TV":13776,"negative":13777,"Ð´":13778,"å¿":13779,"ĠExtension":13780,"eral":13781,"enium":13782,"getPoint":13783,"getStorage":13784,"repeat":13785,"isNaN":13786,"Ġbridge":13787,"plash":13788,"ĠgetNode":13789,"čĊĉĠĠĠĠĠĠĠĠ":13790,"ĠMode":13791,"ervals":13792,"prof":13793,"ĠIntegers":13794,"ĠsetText":13795,"Ancestor":13796,"ĠJMS":13797,"ĠJdbc":13798,"ĠJFileChooser":13799,"\\\"\",":13800,"ManagerImpl":13801,"ALPHA":13802,"ĠOP":13803,"ĠparamArrayOf":13804,"Adding":13805,"ĊĠĠĠĠĠĠĠĠĠĠĠĠĠĠĠĠĠĠĠĠĠĠĠĠĠĠĠĠĠĠĠĠĠĠĠĠĠĠĠĠĠĠĠĠĠĠĠĠĠĠ":13806,"ĠCompute":13807,"disk":13808,"Relations":13809,"Ġtokenizer":13810,"getInventory":13811,"getSubject":13812,">>>>>>>>":13813,"variant":13814,"Insensitive":13815,"EXTENSION":13816,"'ve":13817,"bidden":13818,"cy":13819,"suite":13820,"Ã¨":13821,"Ġ))":13822,"Ġans":13823,"ĠValidator":13824,"Ġmanagement":13825,"ominal":13826,"setDuration":13827,"Ġinvoice":13828,"Ġinterrupted":13829,"ConfigFile":13830,"Builders":13831,"StreamReader":13832,"Plate":13833,"WithResponse":13834,"TokenType":13835,"1100000":13836,"requestFocus":13837,"ĠUsed":13838,"bool":13839,"Ġmodifier":13840,"Ġurls":13841,"ãģĮ":13842,"getDefaultSharedPreferences":13843,"Plane":13844,"Limits":13845,"rightness":13846,"Ġboundary":13847,"commons":13848,"Ġendpoints":13849,"Ġclicked":13850,"Invoker":13851,"ymlink":13852,"ĠGROUP":13853,"?\");":13854,"Hy":13855,"Iam":13856,"ISTR":13857,"Prim":13858,"WO":13859,"binder":13860,"even":13861,"Ãĭ":13862,"à¸":13863,"åĳ":13864,"çİ":13865,"è°":13866,"Ġãĥ":13867,"arded":13868,"agation":13869,"estamps":13870,"ĠCre":13871,"Ġhours":13872,"FileType":13873,"Comm":13874,"ĠFolder":13875,"Ġ256":13876,"Attached":13877,"Ġ36":13878,"Asc":13879,"2014":13880,"rename":13881,"Ġinterpol":13882,"Usages":13883,"Hosts":13884,"ĠAnnot":13885,"ãĤ¯":13886,"ĠPlace":13887,"ENDPOINT":13888,"Ġextensions":13889,"ĠmenuItem":13890,"ĠRecyclerView":13891,"getUnmarshaller":13892,"received":13893,"SortedSet":13894,"Collision":13895,"Communication":13896,"DIRECTORY":13897,"æĮĩ":13898,"STORAGE":13899,"BS":13900,"Boot":13901,"Canceled":13902,"Sibling":13903,"iation":13904,"pay":13905,"qp":13906,"rink":13907,"sym":13908,"scheduler":13909,"æ¬":13910,"Ġ];":13911,"getStream":13912,"getModifiers":13913,"estone":13914,"Ġmm":13915,"ems":13916,"setMin":13917,"Ġreplic":13918,"ĠgetHeight":13919,"ĠManaged":13920,"avings":13921,"producer":13922,"Ġcombined":13923,"Ġ28":13924,"Recorder":13925,"Ġaltern":13926,"ĠfieldType":13927,"ĠfieldValue":13928,"DefaultValue":13929,"SessionFactory":13930,"ĠclientId":13931,"Expiry":13932,"Ġnormalized":13933,"¾ç¤º":13934,"Ġaggregation":13935,"ĠSELECT":13936,"EList":13937,"Fab":13938,"Green":13939,"Os":13940,"gf":13941,"iel":13942,"maven":13943,"inity":13944,"ley":13945,"arl":13946,"rok":13947,"amil":13948,"ife":13949,"Ġbw":13950,"ĠSound":13951,"Ġ---":13952,"achable":13953,"REAL":13954,"OrNull":13955,"ookeeper":13956,"ĠLogical":13957,"IfNot":13958,"Ignite":13959,"Desktop":13960,"HOME":13961,"COMPONENT":13962,"Ġfollows":13963,"Legacy":13964,"Ġdidn":13965,"ĠControlState":13966,"/\"+":13967,"Eq":13968,"Es":13969,"Survey":13970,"hib":13971,"yled":13972,"alker":13973,"Ġtiles":13974,"Ġpstmt":13975,"Ġface":13976,"advance":13977,"Ġrpc":13978,"setFirst":13979,"ĠAcc":13980,"ĠgetState":13981,"Ġ180":13982,"RESOL":13983,"shop":13984,"ĠFS":13985,"DELIM":13986,"maps":13987,"scenario":13988,"Discount":13989,"getMeasure":13990,"ĠfindAll":13991,"Fee":13992,"Cls":13993,"ĠConcept":13994,"PROFILE":13995,"Workbook":13996,"ControlAnchoring":13997,"ĠtaskId":13998,"LOGIN":13999,"Opened":14000,"PAREN":14001,"ĠLinkedHashSet":14002,"ĠEnumSet":14003,"Ġdetected":14004,"dependent":14005,"?,?,":14006,"éĶĻ":14007,"MANAGER":14008,"ĠDOCUMENT":14009,"Correlation":14010,"EReference":14011,"Kernel":14012,"Pi":14013,"]=\"":14014,"cannot":14015,"pin":14016,"infos":14017,"Ġtodo":14018,"()</":14019,"Ġpp":14020,"exi":14021,"unwrap":14022,"setFocus":14023,"ĠaClass":14024,"ĠgetInt":14025,"readByte":14026,"ĠHBase":14027,"ResponseHandler":14028,"ĠWord":14029,"MethodCall":14030,"Ġalong":14031,"ĠobjectMapper":14032,"ActivityResult":14033,"ĠrunTest":14034,"getMon":14035,"AccessControl":14036,"Ġrecursive":14037,"sier":14038,"IfNeeded":14039,"PRESSION":14040,"irty":14041,"getTile":14042,"Debugger":14043,"CAST":14044,"Redu":14045,"ĊĠĠĠĠĠĠĠĠĠĠĠĠĠĠĠĠĠĠĠĠĠĠĠĠĠĠĠĠĠĠĠĠĠĠĠĠĠĠĠĠĠĠĠĠĠĠĠĠĠĠĠĠĠĠĠĠĠĠĠĠĠĠĠ":14046,"Booking":14047,"||(":14048,"Ġbindings":14049,"Ġcontacts":14050,"scanpos":14051,"Ġindicates":14052,"NORTH":14053,"ĠPreferenceManager":14054,"Crypto":14055,"SF":14056,"Scaling":14057,"Trip":14058,"Ġ());":14059,"Ġ}\",":14060,"Ġcpu":14061,"asl":14062,"demo":14063,"ilon":14064,"Ġ\"//":14065,"Exclude":14066,"addOption":14067,"Ġredis":14068,"ĠAPP":14069,"ĠCannot":14070,"ObjectId":14071,"Ġ120":14072,"STRO":14073,"comparator":14074,"annable":14075,"logic":14076,"Shown":14077,"Ġlongitude":14078,"FIED":14079,"Generics":14080,"Descriptions":14081,"+\"'":14082,"Explicit":14083,"ĠItems":14084,"FaultException":14085,"ĠAtomicBoolean":14086,"WEEK":14087,"RELATION":14088,"åŃĺåľ¨":14089,"Polynomial":14090,"Ġconsidered":14091,"ĠLIKE":14092,"512":14093,"Ns":14094,"bp":14095,"factor":14096,"rum":14097,"tex":14098,"Â¨":14099,"Âĥ":14100,"èĩ":14101,"ĊĊĉĉĉĉĉĉ":14102,"Ġroll":14103,"getCollection":14104,"getProtocol":14105,"Ġci":14106,"Ġcq":14107,"Ġcircle":14108,"asText":14109,"isSuccess":14110,"three":14111,"additional":14112,"apps":14113,"Ġie":14114,"Ġones":14115,"ĠsetName":14116,"TextColor":14117,"ĠHow":14118,"ĠVER":14119,"Ġlogs":14120,"subscriber":14121,"ĠresponseHandler":14122,"ĠEC":14123,"SourcePath":14124,"TreeMap":14125,"Ġsoap":14126,"Hostname":14127,"Ġtraining":14128,"1001100000":14129,"iverse":14130,"Receipt":14131,"While":14132,"initialized":14133,"Globals":14134,"Ipv":14135,"MISS":14136,"Ġblue":14137,"merged":14138,"AUTHORIZ":14139,"Owners":14140,"DEFINITION":14141,"Bg":14142,"Floor":14143,"Rs":14144,"kv":14145,"optim":14146,"Ġ().":14147,"Ġ\"=\"":14148,"rike":14149,"Ġbool":14150,"setEditable":14151,"Reverse":14152,"vere":14153,"addEdge":14154,"usr":14155,"ĠgetWidth":14156,"Ġhs":14157,"ĠMultiple":14158,"shell":14159,"Handles":14160,"čĊĠĠĠĠĉĉ":14161,"bsite":14162,"ĠXContent":14163,"Clusters":14164,"HttpMethod":14165,"Timed":14166,"ĠDataSet":14167,"ĠProblem":14168,"localizedName":14169,"drawer":14170,"ãĤ¿":14171,"Connectivity":14172,"Initialize":14173,
[...]
